6
conv1.weight 15552  3e1e0f02 3d359f19 3d30a8e2 3e782269 3ea935cb 3ea33c98 3ca80d95 be315f1f bd860a9e bdc474cf be367e4a bdb3d0b7 3cb493f2 3d3f64e4 3e6528e3 bd118d44 bd6ce4ae bceeaa71 3d4a46f3 bd917a7f bdec3b57 3a7c93c3 bd8e7063 3d06d50f 3d733126 bccc8766 3d107b80 3dbcadd7 3a1ae4cf 39e1ad0d bd83eb1a be2f07b5 bd0bb588 bcb7a8a9 3ddbac99 3d2618a8 bbece861 3d54c799 bd9537c6 bdac50b8 be76fd30 be5073be bdd7eac3 3c09fcda 3d8c999f bca78f8b 3e21f096 3cecf713 bdd998e9 be30d3c2 be70fdf3 bd0aacdf bc8267e5 3c5154c2 bd1aa506 3de517ba 3dcea214 3dc31a7a bd6b0c84 bd6710bf bca7b834 3d3fa27c 3d3ba264 bde8dc20 3cdc8248 3dded14a 3e21b061 bc8a958b 3d1b5dd6 3e0d9797 3d8e0ff9 bd061bef bd9ade11 bcf1dbaf bd85ee1d 3d22ccc7 3ce40c29 bd318995 3bfd27fa 3d10cd8b bdcd82f1 3e0720e9 3d81038f 3d614682 3e517ef9 3e855ee8 3eaabfa4 3db4bda9 be09dee5 bd4b0e67 bddf51a1 be92f443 be1c1ba9 bd0507e7 3ccf10e4 3e6f7063 3d9715a6 bd53897e bdd9bbdc 3da83d21 be2a8ac5 be059bbc bc8d7a46 bd90503b 3d843fd9 3cf1ee3f bb6c8672 3d27f066 3e1b23cb 3d0ccfa9 bda956b9 bd9e3612 be2b1ef0 3d1c2564 3d96ce97 3daaed01 3d2b8b71 3de57fd7 3d010d66 3d592f50 be2421ba be7cc173 be3b69a0 bda754f0 3d735e8d 3dbb84c4 bbdf1a3c 3d452a5e 3dbd725f be069510 be858f49 be203a8b bd849d69 bc58a43d bc390f44 bd8b49cb 3e2713f6 3e05f348 3db4020c bc833679 bd999d45 bac18e00 3dd872a1 3b63cb96 bdd6c107 3d13c5fb 3d759006 3d2e8cec bbeba365 bd34977a 3d696000 3c8cc929 3cbefcb1 be04494b 3d89c613 bd1d5cea 3d0b1fbe 3b7bc86c bc2e0958 3d271a54 3cb82980 bd9dd171 3e22b9fb 3d9bb52b 3c1c802f 3e2b7a40 3e067df5 3e85558c bc9abc3d bdd9055e bc999546 bda2f603 be5d2bbc be43e8ee bd560cc0 3c35181d 3e2965fd b9ecbe5a bdc2243a bd98ece5 3db39f59 bdb31a86 3b02a9d9 bcb3008b 3d22a6b2 3e260528 3d44c97c bd0a69b7 3ddc1271 3cf82c82 bcf168b8 3d610bdc bd835c9f bd75e0b4 3d06be83 bc1e9807 bd8b4d30 bc801e16 bd4d4c63 3cd716ad 3d72d443 bdb37fd2 be63dbf0 be00db9f bda7431d 3c8f17ac 3ca13807 3c554783 3cfd477c 3d67a720 bda5838b be20c9c4 bd468ca6 bd8dbabf 3c9becff 3bd2316e bacb7c58 3d9bb0af 3e201c8b 3d9acc6d bcb63061 3cb637dc bcb8572e 3de9e37f 3ddd90f1 bdcbdd1f 3c7908fb 3b6fd060 3af9fb40 bc8bb174 bbdd7f6b bd8818b7 bc82d848 bc8f4e16 bc109c82 3cc384c4 bd0ea236 bbd76475 3d3885dd 3d2047f1 3ce2f059 3d59eb02 bd5253a3 bc8dc8f1 39b0bc69 3baed362 bc57d94c bd4e25f1 3c9b6f23 3cd5b333 3cbe9bfe 3c36451a bc28f285 bcd48d32 bab1317d bd15de03 bcf7e836 bc949638 bd1cfcff 3c3e46b6 bc66b038 3cc171a4 3c05aae3 3d299aa2 3d6eede3 bc4b28b6 bcd3a52e 3d6d6cf7 bbe53fb8 3c5cd567 3631ef6c 3c369ce2 3d10193b bc8e3b2e 3cf8bdeb 3daf0886 3c4769b3 bca7a4de bd90012a bc59a87d bcf06251 bca76de5 3d7aca46 3c83adf0 bd028b4a 3cc8db1f 3ba479f5 bcf24675 385548ed bd14a4f3 3bad8667 3c00c955 3d11df6d 3cf22725 3d5147cf 3b83da86 bcc8b9b4 bd78747e bd4d62da bd5f9ad7 3b56f654 3c4ea1ec bc7b85a8 3cbff6dc 3cf4bbec 3d5e0b30 ba24bd0f 3db7a4cc bc95291d 3cb96316 bd40f92c bda8fc7f 3c801227 bd4814ee 3d05b280 3c844ed3 3b789eca 3d0ed92e bc50c8b8 bd1b4946 3d024235 bbeef761 3aa88170 bd845810 3cb824a2 3d7f0c46 3ce87875 bde51590 3bf6fa46 bc73d540 3d9c02fb 3b49255c 3d509fc1 bc663016 3d65fa5f bd91e561 bd119099 bb709652 3c1ca0f3 bbd89847 bd2d6474 bbf3ac5b 3d5e1d40 bd220e30 3c117fcd bc8af720 bd5a0b39 bc11af3c bb9c2dd9 3c86399f 3c3c4785 bd0e7010 3ca3827f 3c106a00 3c5c36b8 bc937dbc bc801172 bd5d3a28 bd42d2d3 3c9f8dc9 3d3437b3 bd2ae004 bd9c6b26 bd8f56e8 bc31d83c bd3564db 3d4e82ee bc6d8fe0 bd298390 3ccb0ffd bd24db98 bce0609b 3d402a2c 3cb6a140 bc5e9ce8 3bd7ee3d 3dc43aaa 3ca0005a 3ce586d7 3bcc5ad3 bbb5801c bd20c31a bcd3eab8 3d993124 3d8694d6 3d6e8f75 bc5e5226 3d5ee20d 3c541eaa bc3f1d6e 3ce62b5e 3c95615f bbe26f9c bcbc0d96 3c3fb658 bd584337 3c887507 3cdc3bf4 bcc08e92 3c9a81d7 bcc36f61 bcd08d3f 3c389788 3d265f63 bc61c6cf bd280d08 3dc17385 bcfa003b bd84ff6d bdafc4b7 bc780299 3c5cda44 3d911967 bd29743f bd3f252c bcd20fae bcd40e10 bdb3b387 bab3d2e3 3d6a9ade 3da3fd29 3cda4128 bda98c0b 3d81aa6d 3d45139b bd447bc6 3d168a6d 3dd5164c 3d55fa53 3e0a60c7 3d74d6e8 bc45dfff bd1594ec bd2d5b36 bdb54e9c 3d5e1947 bb6ed374 3d15e503 3e0b206c 3dcc97eb bdb93387 3d5bbf2c bd25f41b bda64429 3c7c73df 3da79f7c 3dabb412 3db39898 3cf02cdb bc7fd845 bc8c8763 bda51548 bce0e022 bcee07c6 3d92c7c9 3d1ab4fa 3db11aca 3d13ade3 bd0c577d bd0077c8 bd65dc00 bda12204 3d51371e bab56c59 3cf9cc0f 3c5afd3d 3dbbdee6 bc84bb03 bd3bf61d bc9feb96 3c963c14 3d088534 3d80ca50 3d22dc89 3d392546 3c641ae3 bca60d43 3cd41f04 3dd40b1c 3b1a5a38 3be03181 3d0bb54b bd76cb02 bd2d9a0a bbf33d12 bdbbb501 3d2cc892 bd0ffc62 3df22bcc bc7f0617 3d2ca45f 3a09a1ac 3cd7130b bc9140b1 3b1330f7 3e2ac040 bde81ddf bcc9be1d 3c62387e 3a96aa74 bd0bdb57 3ce78aea bba1f200 bd31e3bc 3e3ab257 bdf7f0bd bdd8cdfb bcb87a7e bd3a44b9 bc941823 3d08be47 3d1d24b3 3c6031d3 3e9603bf be7f4315 be42a731 bde2a331 bd754002 bd5ce9ad bd3d60f1 3da51798 bdc182d6 3e8ae987 be76bc67 bdf2a4ec 3cdcae96 3dc023dc 3d3e70c1 3df76c20 3d960a5d bd1d0e4d 3e2f6061 be816c8a bd210a89 3d6e16cb 3d8631ae 3dfed963 3d599bc0 3d6e9a6f bd7a30d8 3d0f2a7b be47d469 3c9f2bd0 3db40a15 3d3294a7 3bf76d6f bdad4f1d bd8de00c bc3be9d9 3d3dcec7 3cbdcdce 3d9d411d bc26f6cd bc05867b bbae4b72 bcabf938 3cb5c487 3d54304d 3d8ecad8 bd15ddeb 3cb8bda1 bd53bb94 bd2db96b 3cdfcef2 bd5b5400 bd72fd86 3d251c37 3af803a3 3c86d45e 3c84a0c0 3d7a5a7b 3bf81c33 bc878b7c 3d95219f 3d29e1e8 bda67ba0 3d8e3f3a bd6a6bba bc591b9b 3d288892 3d265b76 3b003ffa 3d3b15ff bc22bcb4 bd3abbb4 3d10e118 bdbe0ca3 3d50f996 3e09148e 3dd95eac 3d64ff1c bdaa46d9 3d50ee42 bc8c2a99 3e49ddc5 bd68b831 3d2d08d7 3d8759c1 3d09bbe5 bd48b95a be0cb860 3d87682f bc5bceb3 3e302561 be5f09ac bdb19f14 bcb6216a 3d03633b bd82fa81 be27a57b 3c6bcca6 bda3d092 3ddc3afb bc300c1b bc573c0d 3d85f394 bbb5bc67 bbe8ce77 bacf47b2 3c594aed bca6324e 3c112773 bd05db83 3db963e0 3d08abf3 bd04f6b3 bdba6e3a 3d2e7d7c 3d6032d8 3d5392b7 bb91a372 bd057aea 3cf9c802 bc8c18e0 bd1cce3b 3c883b18 3bda9353 3d856274 3db4a7a3 bdd30227 3d270b74 bd520997 3d47bc9f 3c89e9c3 3d80b80e 3c0221fd bc80e903 be0a38a5 3e0c2a3b 3d297c48 3c4458f9 bdd43f35 bdaa31be bd873036 3d0b82d6 3bbfba5b bdb80a43 3dd73fef bd912070 bd0c2046 3d3734bb 3dba8e66 3c4a5d61 bbf5e127 3d7e2d05 bcad58c7 bd4ea2f0 bddef4ac bd8e245f bcb129c4 3db10ea7 3d290864 bc5f8dc8 3c676817 bd7d93d3 3ccb0871 bd68512e 3c85ba28 3e1b36f5 3d6be083 bd431ff7 3b9e49c6 bc9ef9bd 3c81ae03 3cecf0e2 bcf50830 3d491185 3db7959a 3e31bf9e b9a5d34f 3bd8a6eb 3dab0c4e 3d0ec26e bd05c7b9 bd6a28df 3d601f2f 3e00032d bcf647ef bdbac7c8 bda37851 bb0b0b77 bcc5ed22 bcbe4a5e 3b471720 3d460580 3c5f221a 3ca1eaee bdebdc87 bd7957f4 3da0cc58 3c3ff0db bc86b584 3d667bbd 3cc39d0d 3d347a5d bbf4df2d be07b1de 3d36ff16 3ce0220f 3df639df bda1fd5d 3cac1e97 bd1364e0 3c2afa35 bd009c9b 3b8806f8 3cb18167 bc968942 bdcd6faf 3dbcbb4c bdad365a bd37c668 bd134e3f bcfd0955 bcafb79c bde12521 bdb26120 3db52c06 bd2df6c3 bce4fa65 bbede0b0 bc4f1e59 3de710d7 bd519796 3b34e55c bdacc5e4 bb351bec bdb72b66 bd8837ad bc98d78e bc2b48d5 3db31e4c 3da07161 3d2f6af9 3c298356 bd2ab6d2 bd7f8e9c 3ccf6f47 3d3eef11 bca673c4 3e0a8d89 3d3fd431 3cb7e690 bd1988da bbf99834 bcbccc97 3d0178a7 3d2af5a4 3d280d5b 3e766584 3da01063 3d469bdd 3d0d3cee bd344d0f 3c5f3700 3d123e5c 3cf2c11f 3ccd4bca 3d821ed6 bd5f06c4 3dc99946 3d651cb6 3a4b8a4c bc8adf9c bda231f6 bdd139c9 bdf9352b 3c6c3551 bdb2d1c9 3be92f6c bdaae786 bca5539b 3d89aa06 3d5b090c bd1d26e8 3d65a1b0 3d77913f 3b22e28a 3d443464 3d0184d2 3cc0abd3 3d47c8da 3c151013 bdde5fed bd8974e1 3cc30d7b bd02bdab bd2aafa2 bd6eaafc bd6234b4 3d0e11ea bcc6ca38 bcfcc0b8 3bf410b1 3e19bb1c 3d8e23a8 3da5a94b 3c329b04 3db5c7b1 3c94dedc bd51d6c5 3d5b265a bd01f71e 3c0f76bd bc971ec0 bd5f606f 3ac4c8b7 bd36c8e6 bdc99632 3d6abb7d bc8a6691 3c3fea16 bc153798 bdc237ce bdb0dbd2 3d8e8b98 bc00f577 bcf81e28 3de54d70 3e143a67 3c422813 3cb34e7a bdb92185 bdaaa95a 3b52c4cd 3dc47ae5 bd979c90 3db1d78c 3a2ab7ff bdd95d48 bd1df914 be047c91 bdfb6bd2 3d689728 bc82c32f 3d028744 3d03f98f 3c650f85 bd95cd5a bdf5f4b0 be14a9cc bdbad7fa 3e047908 3d659c57 bd234932 bc87b5c4 bdb83c05 bd5a3b34 bc6fbe85 bdf82573 bdbd6ec6 3d90f522 bd8f2fe7 3dce1d31 bc335327 3dbebcde 3e0b18fa 3ded9b92 3e1b389c 3e0a702b 3d9ed18c 3d7da5ba bba81771 3a67e59e bd4e7a78 bd8bec71 3d89f6d9 bcac412f bcfd0e29 bbf42dc2 be1ff5cb 3c87e984 bbb648f5 3cf04477 3e3ce417 3e17bc67 3e282930 3e33f459 3e105996 bcd53352 bdeecafa 3c5a8553 3dc4572d 3d0f73a4 bca50982 bd74bb68 3ccfa088 3d28c9af bd8b1bcd bd9209c5 3d8e761e 3d914c08 3c794f72 bd4bbabf be3962a2 bd8552e0 3d182b3a 3d837498 3e199e79 3e9b6615 3e2e6446 bd99ccfd bdc71fc9 be97d646 bd1af0af 3e9cdef7 3dfe9888 bdd41eed 3dea4d8d bd1fb0f5 bea20d28 bee63e4c bf13ffd0 be4c8e97 3de5a48a bd12f321 3d8ba427 3ddf0485 bd6fa5b7 be7d62f8 be8a8f46 bf33555c bde6c483 3e6dbdca 3d90a236 bce32781 3d1ee030 bd73afac bd407272 bde7966b be93cf0c bcf708f3 3e0cbede bcd1a6c1 3cded7ec 3de013fe 3da5bfcf 3dfcf2c7 3e7f18ab 3d88e96d 3e9de824 3e9affc2 bda7e19c bd3e0cd3 3d8e8dd5 3dcffe78 3dc459e9 3d5a4844 bdf2617b 3dd1812f bca956bc be29b4e0 3cdacbb4 3c0946fe bd16aa2e bd1e4a49 3d24e150 bdcbe3d6 3c69d1bc bca79b23 3cb495d1 3d7c297f bda7517a bbaf9ed9 bdf2b029 3ddf190d be0ebc05 3d0589bf 3d4b58c0 3d11e78d bbdfaaa4 bb8dd6f7 3c8e9ade be0f51dc 3def50ed 3a8f6982 bc911307 bd2b27cc 3d21c97b 3cd86c1f 3d0e9f39 bc0b89ef be6a05f6 3e78f842 3d1385a0 bd3a6176 bd674c35 bcd1d700 3c70abba 3d670c54 3e31cedb bd3bd9d2 3f0ad309 3e753b96 3de44c6a 3db07def bd6ba0aa 3bd12630 bdc684a0 be1f66a9 bed19778 3df9d930 bd3127c5 bde5d504 bd36914f bdc16fc2 3dfb4a0f ba8b518d 3d43ea30 be5b300e 3df9b185 bd81245d be05abd7 3b6d3870 bdcf2a4d bc908223 bd0844d9 3de1e425 be10690f 3e2d26fd bd39fc5b bd832c02 bcb4893f 3a82d9d4 3c6df2c8 bd2d77e4 3d8a80c9 be3c2d63 3de176c6 bcc80cef bb9d1176 3df677d8 3db575bc 3d0a9096 bdc4eb1e 3e201b69 3db9f8cf bd08de3c bd6c914f bb758bbc bd29fb56 3d91eba8 3d9acc20 bd5c5a40 3c2b0b0a 3da3edec bdd8dcc8 bd4089bf bb31d73c 3c51ecfa 3d299324 3d1f380a bdbc1aa0 3c55f919 3d3a00d3 3c06dbb3 bd791b02 3d354077 3d719239 3d9bf706 bd47b79d bd312ee5 3a1b292c bac5e4b5 bce80459 bdc3d40d bca29621 bd816e10 3caa08e2 3cf29638 bb94f4f1 3dc78ee7 bd77429b 3e18ce6b 3cd3bead bda1e936 bd047a83 bdbf6e1f bc4ed0bf be7be6a1 bc25e691 be3ff38f 3db89856 3d5e19d4 3dbf3a6d bbcfd039 3c106ee8 3e0b6027 3d2c81e5 3ba45fde bc8be532 3b8be24b 3dcdb8d2 3c1ad947 bd9639d9 3d86a50f 3cc2f414 3e1bbeeb bca5d1ff 3d17be34 3d495a81 bd6f60b3 3c6d61a2 bd414dea bd815269 be16ef87 3d84b343 3dcba494 be3e2c27 bd6aac46 bcc822f4 3c738549 bc8e43a9 3da38d82 3d8bf23c bd004852 3d5347c9 3d3aa4cb bdc893f7 bdac9347 3cf9ae12 3d153521 bbf39b21 3cfae46e bd82dacb bd2de188 3c03bee1 be12ec96 3c831ef2 3dae157f bcd6249b bd584d6e bd6689db bdd05592 bdc78136 3d56e594 bd9f7634 3a592cc5 3d11d03f 3d800e3d ba342d04 bcc793cf 3c8b7167 bd489745 bce9014c 3c920bd3 3da4b308 3c4fcb40 3d0632ec bbb33853 bd5629f0 3e0b9934 3db6bf74 be024c3f 3c599ca1 3d2b0c5d 3aeaf461 bd10aa9d be0572db bf6870cd bf254938 3d347f47 be053356 3e30949f 3e6f785d 3e0712ca 3d94fdbc bd447182 be3d3697 3d9a3309 bde3375e bd08def9 3dbbf755 3e316eab 3d1503d0 bcc63ddf 3d2ac388 3dd13302 3eca9cb0 bc9aeba3 3d206900 bd8a3742 3d995a73 bdc9cf3d bda2e355 bc5f2c7f be1c38c9 3e76e4b2 bd143649 be0a5264 bc096b28 3d39de2d bc82e769 bd994497 bb10babf bd3e1384 bd3941fa bd65910f 3d410594 3d224a41 bcf0c328 bbb00a36 3d1efbd2 bd37b576 ba268599 bd58efbc bce23b0c 3da470f5 3d3b559f 3d75773e 3d55276d bc0184b5 bd6df39d 3c2f28e6 3a834272 3bd223f4 bc969a1a 3d96b9ca 3dbafa26 bc9872a6 3d9245d8 3d78aca7 3c8318db 3d71d0b7 3d1cb213 bb8abcc6 3cd0d334 3de2bcc0 bc15251b bb848609 bd1db330 3d444dd6 3d6f44a2 3dbf623c 3d66c727 3d03e715 3c3d3af7 3cd5acb9 3cfb2708 3bf6577b bd383437 bc04d279 3cca1055 3d88c545 3d62f45c 3d862266 3cc4b9c7 bd859a93 bd40469c 3cadca4f bcd13299 3d764170 3dbd381c 3d7141da 3d909389 bcd948c7 bd448d35 bd8c5da3 bd992fdc bbd03fb5 3c56f92b bd243409 bc00e900 3d119cdb 3b05caf6 3cb84964 bd123895 bd969d05 bc94469b 3c619488 3cfca261 3c075965 bd7e6e60 3cd61190 ba57858d 3d1c9812 bd0205c0 3cfd8c82 3c8a52e5 bcd7a9cc 3db29932 bb2bbda8 3c8005bd bd2dc7eb bbc2a19c bd94ddd2 3d816523 3d4fb8ac b9eb9706 ba00a940 3d8f809f bc9fe0a8 3d9069f2 3d591ee5 3d64f9bb 3d48dcd7 3da03a39 3d39607b 3e13cf8f 3ddb42a1 3dd0f387 3d990c2c 3c439258 3c44d635 bc0024d5 3d9815d0 3dfeb650 3d4bd6b2 3e0e6714 3d8b521d 3bfd3e20 3d17e118 3d6bf561 3bfddb92 3ca93e98 3dd010c6 3ddcb54d 3d7bd036 3dc2968e bbfd346b 3d89be7c 3ca09c54 3d0d3ff9 3db61284 3d70c71a 3d8606de 3c595cd4 3ca602df 3b90401c 3d7308b8 3d333ba4 bca6f21b 3d4d0a74 3dd24517 3ae6ae9b bc7f1da7 3c67f5a7 3d403b44 3d635a4b 3d34db6a 3d99b79a 3d51d469 bd4f41ec 3d33d874 3d0b7db4 bd5493ff 3cc932a1 3d297bc8 bc808d34 3c691920 bc91d48d 3bb9b02d ba91a451 3d60d0d6 3d57f11f bd20585a bd93cd56 3d2a009a 3b1025f9 bd826314 bcc22dad bd716546 3b7ca035 3bb07e3f bbe2beeb 3cdfa1f0 3ca9ada5 3a961243 bb90851b bda73a20 bd2b889f bd373e44 3cc9ccda 3c43157e bcea5f9d 3b466726 bace4815 3c75387a 3cc53a72 bcb4c9af 3d19f44f bd012834 bc956162 3d387488 bd5dc6c9 3d7dd738 3d286825 3cf53df8 bd0244cd bd9e098d bd466675 bd4a4afe bd91654b bd75f2d8 3c46eb97 39af1cf0 bcad5343 3b07d69d bd97ef49 bd266dbe bd59ae57 bca7d437 bcf1b65c bc0bf266 bd170048 3d636af0 bd20ad5d 3bfc67fe 3d25ee93 3c21718f 3d1db628 bd0f0a52 3c41ca47 3c4e3bdc bc21f0cd bd3dddf6 bcebec3d bbe5de7c 3d69203f 3c22f5e1 3c6e997d bc40e8bd 3d24e746 bcdd46d4 3d90e7d9 3d0b1f0b bc9562bd bbefacef bd3590d0 3c56baf9 3d372194 3d3f93be bcbcc473 3a87d101 bd18ddc5 bc436251 3cc8d72f bd07df0b bd196a7a 3d81c33a 3a711aeb bcea00ac bc9e7ddf bc6030cf 3c8a530f 3d18561c bd16622c bcaa928e bc6b7dc8 bd53245a 3cf33a25 bd18f969 ba8abc8f bd65f053 bd17b447 bc939600 3cf32eb3 3d1531dc bd169727 3d350fd9 bd81f301 3d108f47 3bbed9f6 3c9a6da6 bd00a7ae bda38617 bd2f56c3 3b7d5ed8 bd7e7dab 3c98ab03 3ca1780f bd43d014 3d6ac126 3ce9cf47 bcc29fe6 3be5f965 3dcc8474 ba5f07fa 3d1ab5bd bd23996b bb60725b bc9f8bc8 ba1e3490 bbcb5437 3cc04ce2 3ddaf8ca 3ddd7b9c bc230041 3cd7ab07 3d65acda 3da79579 bd1e9d68 bc87bf65 3d93fc8a 3c65a228 bc357708 bd238253 bd28f3a1 3d4b1a3e 3d164415 bd709a85 bda95ecc 3ce9540d 3d57c7c2 3d8634b6 3d13d5d9 3ad7bea7 3c8e5f1f 3d07b131 bc859582 bdcaa249 3ad76f4e bd30f971 bcb613cc bdbfad45 bd629909 bca72f2a 3d15bd96 3d4d2551 bd9e6b26 bbc58a96 3b1db705 bca031ed bd639401 bccb5b5d 3cc30731 bab847ec bc91254b bda451e2 bbf59999 3cac33df 3d786068 bae768f8 bb2de5e6 3da03b27 3b003e2e bd0b531a bd951243 3d1dbac1 3d8da369 3df43431 3dbf9776 3cd36503 bb4e3de1 3d4279d9 bc3092d0 bd14e8c3 3d3689af 3e007d8e 3dbac8f3 3d6b7618 3d71c17d 3d6393e9 3acaad83 bb7ba255 bd586c92 3d2c2ea2 3debbf50 3dfd155b 3cd1c3cb bcb8c688 3ce89f5a bd0089b0 bcd19af2 bd31365e 3d38b974 3da4b832 3e2e9db2 3de177ef 3d7aa954 3c5e1abb 3d0dce0d 3b6459f8 bd879ced 3db51d4e 3d7ab7e5 3d6f75eb bcab08ac 3d46c1f2 3cb16d50 bcf21399 bd623bb8 bdb6a429 bc92d31f ba432e3e 3dcd2035 3c801b0b 3bafb353 bd3ae88a bcca7704 bd641bd4 be152975 be134b87 bddbe476 bce082de bd91ea28 bdb4efee bdb02372 3ce0731a 3d1a0f57 3c116f34 3d905e4d 3d0809ff 3ceb8d46 3d8fae8a bc0a12f1 bcb3ad25 bb7b0d6a 3b206c0f 3d29ec44 3ca717ba bd5d5b9c 3d31f086 3cc7c2c6 bb833437 bb23bb67 3c7418e6 bc195b57 bd8612e4 3c6abd3e bdc94f8b ba76fbac bde0982f bc8eb4a9 3bd5cc4f bcaf5cc1 bce08c85 bd06c1b1 bceff3f3 bdb659a5 bce8d938 bddf81c3 bdf3a857 bd9e744d bd2619cc bc2f85d7 bdad623c 3d2c8b1d bc197e0a bc2f7c61 bd775f95 be08a13c 3c51b955 3c7fb118 3c6ada3a bd53277f 3cf7c52b bcbf7790 3d035719 bdf613b3 bd5fbac1 3bdd313c bc8f2679 bb7f2164 3ce5d6c6 3cdf10f6 3bd72ec1 3c903f14 bd9776e1 3cda9c59 bccdba52 bc8d489c bc4885f4 3c59485a bc8158df 3d84a1d3 3e135c00 bc75e255 bc690420 3cdbfbac baefe021 3cec2d7c 3d99aa69 bcedda4d 3d93c9b5 3d336698 bcbae6dd bb16f7d2 3c19e348 3d5d58de 3de39cd1 bc818a20 3d84e41f bd00a271 bb87189f bd39122d 3c8b4694 bd8a5af9 3cce4c88 bc9f89a0 bd664892 3d854bc4 bd248f5e 3d08923e 3cfb31af 3de1c989 bc1b49ac 3d0abe76 bce7f4ff 3c2abd22 3dbabf2c bc9d1a3d bc26a63c bd8f3cde bc998e61 bc9124a6 3d00c1ba 3d2d4cd7 bd9de019 bce3b777 bdc96770 bd93b5ee bd526451 bdb8feb5 bd8f1bfe bc1f4de5 bcaff4a1 3b74c300 3e18ae7e 3d1db795 3e0bc3b2 3e4830cb 3e211cc9 3be00444 3ddce296 bd14a40f bd9ada12 3a10c10a bd8f48b2 bd8667aa bd71bd22 3d246244 bd8ce97b bc92accc bcce8674 bd896c34 3b75a09b bd18f51d bcbfa987 bcc0641c 3d46d600 bd960707 bb832a6c 3b7f201b ba7150c8 3dbb4106 3c5a811f 3da88be3 3da838e5 3bea6bda bb7dc5f1 3c01c7ce bcfadf47 3cc40fc4 3c8723eb bd7b4ee0 bc0ea077 bc4c5710 bd90573c bda2ad4c 3d27ca6f 3da2a86d 3dff7073 bc260024 bddba899 be06b537 bbb4d2dd bd63676a be2ee8e1 3c983dae 3dc90a7e 3bee70d4 3ab511f4 bd908a12 bcfaca47 3da1e391 bca1b8f1 bc239c35 3b4a28a9 3d770f00 bd32bd6f 3a0db8ea bd6e7280 bbf21bf0 3e1a5e84 3d6af42d bd667a63 bd0d218a bd7af8be be4e8f0f bd1809ca bd2ef112 bd92b2e2 3dee2f32 3c084c8b be1470d4 bd555d25 be3c918c 3d332887 3e0b7ff3 3e8bc7b9 3e8e3f4b 3efec144 3ec6db9b 3e7093b8 3e302f8b 3d9fbdc3 be254684 bd71b2eb bc9616f8 3d451af1 3e620933 3d18f3a2 bdb04e4c bdffa1e5 be0d253e bd92d505 bce70a14 bdc48f88 3cfa458e 3dfb4105 3da56f1b bdce0722 bd0b211a bddb5b3f 3d7977ee bd0076d9 bd362ca9 bd598fd5 3d09877f bcfebb3e bcbd3253 3d076518 3d4167a9 3d2df6ba 3ad199a2 bdd4b2e7 bd5dc31f 3cf783b8 bdfa3931 bdb0407b bd81c31e 3dffc5e9 bdf2a691 3d6a0d55 3d4d6acc 3d8c7e4e 3da8d195 3e152e7a 3d8686ab 3d31a025 bda556b9 bda2f74f bb7340dc 3c82751d ba5c5c9c bc0682de 3d3a39c2 bc018f8c bc2d0f2b bd9cf51d 3dac4a47 3db08447 3cf39b18 3d83589b b955eb1f bd1d5c4c bd594981 3dc94452 3d72354f 3d837153 3de67e89 bd816381 be3bbcd6 be6adfb2 bdb9ccad be468ca5 3d85536f 3df475e5 3d922b7d 3c05802a bdcd721f be2719ea be86c071 be4685e6 bdc26a4e 3cc2decc 3da15488 3e096a3b 3c1d1311 bdbfc419 be675285 be5e277a bdb83b97 bdce24c4 3db71325 3d96c0a3 3de59d69 3dc777cf be015e3d bd17f5c5 bdbeea28 3bb6e2f1 bd4efb7a 3dd6779d 3dc7b6e1 bc6d3c3a 3c5f5109 bca0ebdc 3c9aba6e 3d1cc8c1 3da7d628 3cffd96a bd7410f9 bd193c48 bd64edad 3d120f4a 3d9ab526 3daaf6d7 3cc6bde2 3df337cd 3ddfc09e 3c830988 bdff511a 3c5882db bdd0df2a 3d92c5a9 3bf974a0 3dbbd3d4 bc944456 bdcf4b53 3e08e6a2 3c2ddcee bd87147b bdbd78dd 3d1d3289 3cc1690d bcae694a bdcea1df be245c29 3db7aaa3 3e67f939 bc8bebb2 3da536aa 3e5429a1 3d628358 bcdcb7b4 be6030f8 be7b378b bc739fb3 3e3f16f7 bd3f5bb3 3cda7fc1 3d98bfed 3a9758eb bdb4ab1e beaf56a3 bf0961a6 be9f50f9 ba995825 3d5ab308 3e2bc5de 3e4041a7 3e8cce21 3e84d9be 3d42635b be45e825 bd8c55ce 3e2ae595 bdad52be bd332522 3d3ba730 3e07b32b 3e151fcd 3d751fa7 bc4d3d26 be01e693 bbe86ec8 bd244b0c be01e164 bd8378ac 3d1e56d8 3e2c0dcf 3d707b2c 3d7ec9a8 3d1d3503 bb25c2b4 3cd57a40 bdb649d3 be2aefff bd1697d6 3d74fc34 3d79eeb1 3d8ae32a 3d80eef8 3baf3fd1 3de2cdab 3c8b8407 bd0f2ea1 3c0d0566 3d97bc25 bd84ae01 be1ec65b bce395fe 3d391a4e 3c808e2e bdf62bc2 3d474c82 bd8ebea8 3c9519ac 3d39bd61 3d042ef1 3b9fbf9a bdeddce6 bcc12696 bde3a339 3d3a999b 3c3edfd7 bd03866a 3c915ce8 3d2e8dfe 3dacf3c0 3d159a0f 3b86c25d bb6e5220 3e08ca97 3d0c3f68 bdc0f43e bd5e0bd1 bd23d732 3d39c83a 3d8b9e41 3ccaca8b 3dd2dc0f 3d3514c6 3d14b02e be062207 be06489f bdd895d1 bd3a67b7 3d343980 bc743ef6 3cd789c1 3d73fcec 3dece76d 3da09b10 3d48512c bd964a28 bd66e8e5 bc11377f bbbcbc16 3b27a4be bc12a571 3cb15b66 3d5712b9 3d1cec95 3c61e173 bd733474 bcb1268b bd3110f0 bdbd6167 bdd1cbe7 bb1ee8d3 3ce35364 3da9e465 3d07c75d bd41fac5 3ca03408 3ca55971 bda1dec4 bd6ed8b1 bc74307d 3d31e062 3c53783f 3c73a4fd 3d64d89e 3d5a2543 3cab7c08 3bfa2892 3d636d9a 3d327776 bc23b48c bad7fabc bdb2dce7 bcce9b3d bd37d2e6 3dc76a23 bda329bf 3d26ed0f bcc066ca 3da72423 3c08485e 3d2ea8ea 3bb551a0 be29dd04 3ac2c684 bd8e7924 bc6ef79f bda415b1 3d28c262 3d85e8fd 3cc3caab 3dca57d5 bd22a859 3c5534e2 3c5e36af 3d924f9d 390c61c2 3cd2acc3 3c0fd672 394bc392 3de9529e 3bb1834c bca71a84 3b88d9ea bd43a3c6 bd30b7f4 bdadd104 bd6403f3 391f5fcb bd3144e9 3c2d38e7 bd102ed8 3d165cd5 3cb0bc13 bd38091f 3c92a9ca 3d2102e6 bc93205b 3d65de14 3d5b2ff1 bbe5e793 3cf053ae bd599701 bc6a0517 bd115b29 3d4ad25c bca68c58 bd95977d 3d49668f bc1e6bd3 bc6cf6f8 bdc8dfef 3b94bfec bb96ab59 3ce8b996 3c49b2ff 3bc5b0f2 3d268b4d 3d4f9e84 bacfc565 3c905b21 3c813f6c bb9fe272 3ca1b341 bd055cfe bbe51e43 bd2dcb03 bc701957 3c9ca0ac bb9d41d8 bd3df4f5 3d3512f2 3c7262cc bb91ae83 bc843e9b bb6217c7 be63e483 3e3dd9c5 3e070352 3d400dfe 3db04d7a 3d555158 bc94cf41 3d2a0947 bd41789e be832546 3da64ce8 3c945178 3dab07fa bd1cb32e bd34d005 bda8fa4b 3d0c73bf bcbfb1f8 bb3dd7e6 3d9599aa 3cc4ce09 3ca329ed bca6df7e 3d60d9b4 3c1e708f 3dd2d8d2 3d8463f3 3e17d6bc bd19a612 bc85240e 3d0fff48 bde70330 bc096832 3d4e8d03 3c9b8c08 3c87abb5 3d4498c7 bdc33af3 bd59fc4c bd938236 be166b7f bd96f007 3d91a7d7 3c36dd1b bd90fa1c 3c74f382 be4538d1 bd781d3f bb663895 bc5d4208 3d87a11a 3d21ebb4 3cc0cca4 3d729062 3d94dccd bd5dd7fa bce2a1cb 3de3622c 3d540ed3 3e01e150 3d7c20b3 39ac03bb bd58fc35 3de922ca bd17c52f 3cca8687 3c61d96f 3c2b371d 3ccabfd9 3b4a7ba0 bd285638 3dcbf7ae 3d3714fd bd8396e4 bd03f13f bd2b145a bc9b1877 bd422816 bdc5a8d3 bdef4e79 bd881bb5 be88c073 3e5f97d3 3e39528c bd2af062 3ac4008d 3d41c2e3 bce22043 3c18c595 3c2b7dc2 be1accc2 3df6067e 3d83e8ce 3cec17b8 bd9f0099 bd3f7b4d bcb89b44 3c605365 3c981d0c 3ced7774 3ce86501 bd0e86f1 3b844204 bdcaf76e bd6c7f40 3b1c5443 3daa7c54 3d03643b 3e173902 3bd34ecf 3cc082f5 bd08a05d bced4a9f 3d500d47 3d8a5684 3c1a7dea bdba55d2 3d2c0314 bde9ea94 bd8ed61e bcbb1326 bddc4a45 3dbeef21 3d923a03 3d3f0283 bd31f1ef bd13c26a bdfc8f50 bd7538af bd51bddc 3ce597df 3d9b5749 3ddce6d4 bd9bbffc 3ccc94b1 3d93020c be1f304e 38dbb449 bc8de189 3dac1f43 3e2af580 3d822d69 bdf9351f bccdc812 3da93ab3 bca6e97e bd0a715d 3adb26dc bceb6c32 3ca4972c bd89b539 bd98d263 3d9cd288 3e207602 3ba877c1 bcc86dd1 bcca5360 bd227446 bb98cb53 bd316c4b bda6b7b1 3d89ca5d be8d15ac 3d959ccf 3d842baa bca43c98 bd6e2b35 bc8a4894 bbc8444e 3d9d33f0 3d1d2ed9 bdbfae88 3dbb463e 3d5a777c 3dcc3739 3d42d816 3d245d92 bd01ec59 bb517537 3cc8a651 bd174629 3dd4dce9 3d339a90 3d3d0f4c 3d2de38f 3c5ceaee 3ce30df4 bd2852da 3bfc1e0b bc15c86d 3d997700 bd6dc855 3dba9c7b bd14fca9 3ca28527 bdbc7800 3c32fe21 bd29187e 3d8b5955 bc0a2246 be0259d9 3d9f2029 bc8474bd 3df97a58 bc8ea378 3cea75c0 bd0c9fec 3c3da6d2 be511c57 be3f381b 3ca2b1b6 bd6ff81e 3d4e120d 3cc9d8ec 3c8fc177 3c2d019a 3d53fcef bd3a84b2 be2e1daa bb6f584a 3b9c2be1 3d052b6d 3c7d0372 3d1fedf2 3c9e0bd6 3e175479 3d3792f5 bd7271e5 3d0f6065 bc1fc6b6 3ddb369d 3d50bfda bd47f30f 3d33877d 3e0d73b9 3c5e5671 bdd19877 bbdcfdfb bd1d2cac bc82c556 bd83ed7f bded7709 3ccfac81 3e04fa22 3c6343c9 bd952735 bc90cf76 bdc45d76 3d4a0376 bd79515b bd1998ae be0e034e 3d418f9e 3d7ad97e 3aaee7c3 bc3fb89d 3d00b8e1 3bbda7a5 bccc9628 3d82b375 3dd40757 bd9bec9d be037cad bc976bc2 bbaa45b2 3d7b506b 3dd0870d bd25f997 3c8e4a06 3d3ec883 be11818c be08858b 3d3a5e68 3cf397bf 3d58cd81 3d800347 bd23cc5e bcc9f8c7 bd8ed372 bdc23d9c 3c99f2b7 3d1e688d 3e292314 3dd329f7 3d13d29f 3cf9f093 3d14e18f 3cb1adba 3cfb5e79 bcda08b3 3d909d92 bcfc52f1 bcc2284f bd8af8a9 bdb3226c bd28833d 3d626fc6 bd9d0638 3d8c076a 3dc0873e bcd7d658 bad43294 bd40e123 bd8d7686 bd864e8c bd15e0ec bd58fb21 3e0014c7 bb945edf bd7a46c3 bd2ec22c bd312e61 bd7c0703 3df46704 3c3eec1e bda96348 3dc2506b 3cb04007 bd62594d bcf99e54 3da278ad 3d7284ca 3d8f30d4 bda365d3 bc8f2a63 bd240adb bd4b24f7 3c9d9978 bbc9f238 bd40af9a be0e58b5 bd93ab03 bda2c51e bd85dbc9 bd64381e bda9097b 3d23c8ac 3b633c0c 3e127d92 bc0cb81f 3cc2ef3f 3e0be541 be2d95a5 be02ceac bdbb1ff8 bceca35e bc839699 3cac45f2 bd22ad0e 3cb40252 3d86cb2b bd8165fb 3d1b8339 3dc36724 3e406eb1 3e160db0 3dee8841 bb78cf58 3b8cdd11 bda3f7fc bdcb197b bd45ae35 3da7fe83 3dc14f4b 3d89e4f6 3d9f7e37 bca64c7d 3b9b5fe0 3c804bb9 bd17ce3a 3dbee5e7 3e0fa07c 3d2c20a0 bb164815 3d81c5d7 bdcbef57 bda2d5f6 3dcb60f2 bc59ffd8 3d94c7be 3d8ed7fe bbc46619 3d91b634 bc8deeb7 bd731aed bdefcc84 bb772d6e bd7fcb81 3e0497c1 3c215401 bd3210cd bc163d9e 3c4857b4 3bee6954 3ca77cfd bb62827a bdcb8195 3d365764 bda79eaa bdb6cc18 bd9aa935 398920fb bca1bf6f 3e05e84b bde8ffe3 3cdfa005 3dd5f6a9 bbaba36d 3d833ae8 3d6976a1 bd7a4dae be0ba039 3cb3433f ba5f2789 bd7b3a96 bcf23a31 bda24c3f bd95608c bcae9ce6 3d93e308 bd5795b5 bc6540dd 3dcc51d2 be5a6b67 be01fd58 bdbcbf97 bd17368c 3d05eaaf 3d94bb25 bd85dce8 bdd6a9a5 bb5fd831 bd1e9653 3bf4917f bca7fdfc 3d49931e 3df7da48 3e275a07 3d9dc86e bce3a9c0 bd23758f bd34d48e bd7ca58d 3d96f7bc 3e09d6e0 ba9b66f1 3dd8efa0 bb7cfa64 bd51dd11 3cc2e611 bcad0289 3d900625 3d3d6bb1 3d3ef954 3d055988 3e2478e3 3c33acf7 bd3a61dd 3d972486 bd3de8b6 3d6412d5 3da61b80 3d5c37ea bcaba3a7 bd698ac2 bdad5c46 bdd717d0 bc691b46 bd084d59 3d60cfdd 3d679a23 bdc9837c 3ced1f5f bd4d3477 bce03d90 3dbf2f3d 3d1a042b bd41cccd 3dbb3b81 bd954e10 bdd43910 bd8ef1c4 3da0c01b baddf580 3d958505 bdb15436 bd80214a 3cec44e4 bbe7cba7 3d8608d1 3d3ccba8 3d817e33 3d375cf6 bcef1fea bd043aa8 bb9742e6 bb375a51 3da00c9e 3d91ae7d 3d9091ad 3d7ae6aa 3c4d2874 3bfbe543 bbe53bb1 bd129e25 bd2aaa64 3d443cc8 3d7e14a7 3de87edd 3e0de21d 3c00c962 3d5461cd bac19d4d 3cc443be 3d8a9dba 3d20b4ef 3e0d0954 3e038bec 3df98ede 3dda68fa 3cfe2e1a 3d437802 bd383904 3d0a778d 3db63f6c 3e146b04 3e70276c 3e256f8c 3e047374 3d5a5c9e 3d08410d 3caecd1e 3d913b9a 3cc61afe 3e08c523 3dbebb4d 3e1909a1 3d0f3be5 bce6c1e3 3d062ebd 3c80233a 3cda6625 3d18fc64 3d99f4d3 3e08e35b 3da18919 3cd6e41f 3d20dbe0 bd2c771b bd891dcb 3ac5679d bbacc244 3cf33179 3d16742a 3d83d011 3d523bb0 bcc69d96 bc8ad1d7 bd31b24d bd567e32 bcd5c7f5 3c524fee 3cac3752 bd5f3cd6 bd8b4e0e bc138d7e bce9406a 3cabe418 bd8eb0d5 3d0a9ac0 3ca292dd 3d598301 3daedd3f bd29f613 bc983033 3d3bbf4e bc857cf3 bd87cbc3 3d2b7d5b bcab2548 3ba7cd86 bbcc5503 3bf9af9e bcf9b7fd 3d4cd47d 3c1bf8e6 3c62acdd 3d551931 bd4f9563 bd7c93d8 bcf2acfe 3d7060dc bc1b485d 3cb55ed3 3b299d93 3cc5fa94 bd140c68 bd58c6e9 bd84f522 3ce5878b bcf13969 bcc715c6 bd053c55 bd5d608d 3d961b92 3baa4709 bd8d2e00 ba0b1327 bd678948 bc261109 bd521dbc bcbc9597 bb812f5e 3d02aec7 3d8f584c bd25b709 bbf2eb0f 3c0ed320 3ce1c859 3ce0dc41 bb4a8ca9 b943a096 3cc7baae 3d845337 bca8c7be bd608a7b 3d34d494 bd1e88c2 bcf4c7f7 3c659ca9 bca299f8 3d443bc7 bce3db4a bc0cc63f 3c2da5b8 bd12c252 bc90325c 3ca388be bb88cc65 3b3ed8b7 bd00f10e 3d254a6a bcb4b6f7 bcfac36a 3d940371 bc9cd069 3c56ab87 3d9d839d bc0f1ce0 bbb3b1fe 3d4f1521 bd2221ed 3d5124d4 3c1865da 3ce16910 bd0a6367 bbffc447 bd433eb6 3c8afb9f 3ccd9c13 3d30d650 bcb22b79 3d26943f bd3c9edc 3c4a4eb9 3cbf9574 3d0eef79 bc8800fb 3c234c97 bd0baaf7 bd3a1ac4 3c934327 bc4ef595 bc30e7d7 bc86775b bd3cae40 bba53537 bcda69c8 3d840fc2 3c806bd2 3d50aa36 3cfcc0ac bd023257 bd628de4 bb9861a6 bd0b3429 3dae7736 3d8e0fe5 392deb8d 3d079b1e bc899b5e bd60781b 3c9b5743 3cbc468c 3d139904 bcb6bd38 3d8ce384 3cce3db7 3cb0c02e 3c401102 bcbf874d 3c8d0e12 bd2a7f1d 3d4a42b5 bcf6e914 bd8177ff bb22ec13 3c629c65 bc8aebac 3be4ad1a 3bca613c 3c4d5503 bd7304bd bcc16da1 3d2544e0 3c64d56a 3d27fa24 3d2afc83 3d0f5469 bd4130ab 3d883807 bcaec415 ba915fc0 ba11ce52 bd7eb97e 3b33be31 bd8047be 3d38e4f3 bd0c43ab 3dfbc566 3d7e2c64 bd94faf0 bc81ae77 bd72fd59 3ca25f40 3d6b063c bd285c44 3d98f08d 3dda0594 be0350dd bdb33676 bc567ee6 3d029cfa bd3cb12a 3cb84591 bd78242f bca85961 3ccc8ce4 bdc89aea bc815345 3d1556df 3e030706 3db1c197 3d129c7c bcf4f93c 3ccdb00e 3d31a174 bdf61465 3cb73a87 3d2390e3 bd0678e8 bc98ee33 3db6905f bdc7e772 3c56989a bd0f46af be36122b 3c41eaef 3d39c97c bdc4be92 bc39bcf0 bc3fa985 bd138825 bbf3a2d3 3d8d9050 3d32012c 3e264da9 3d72b06f 3d9a355c bd4cf4c8 3db03747 bd41d31f bccd20f0 3dce3838 bcb96960 3dad94c9 bca5f63b 3b8ecd0b bd789a7f 3b9ee332 bda08177 3d0e188e 3c65529f bd838b5d 3d0bd63f bdc9f2fd bdd18fd3 bd8e88c7 bd902bcb 3d604977 3c1d90be bd577d3b bdeeff8b bcc8a226 3dad9f27 3d9467aa 3dd0de0c 3d34a0a4 3cc47a08 3c81b5f3 3d75fcaf bbd53d6d bdd2cebc bd92165e bd8831ad bdda6089 bdf335e5 bd37e08c 3d5a2319 3d315a52 bd42c365 bd65dbd8 3d1bc198 3dca0f81 3cf8b7e6 3d22a2c1 bd518f83 bc9fdc77 3dabf715 be0fa51e 3c1a60f5 3e38fa5b 3e40b430 3df20265 3df1f4e6 3c8cb5ee bd4ae031 bd43f464 be241137 bd76e381 3dd08131 3e17557e bd49a6f6 3d451f4f 3c4cb0ff 3c4d4681 3d737db1 bda704ca bc588fae 3db3e381 bb83def0 bd8f9bb1 3c47bb7d bc7da0f5 bd850799 3dab4cb3 3df3e4cc 3df1f5d7 3d79f2c4 3dba0340 bd5279f1 3ce3a36e 3da54658 bd0a45ff 3d6e15fb 3ced3160 bd3fb9e1 3bc0cd91 bdc429d1 be3a2f44 be0570e7 bd66e6a3 bd67c770 bb0612f3 3c5cd8ad bd9b134a bd735309 be2dc7e0 be3b45ed bd9ac772 3d3c5ea5 3d99a919 bdc1b37d bd398963 3d4a7c9c 3da15a3b 3dc5a8cc 3d9bbc83 3d117149 3ddeb043 3d5ea738 3cd60577 3c530735 bd5e42b4 3a013517 3a9e125c bdbd5b44 3bfedd1d bd733a48 3d66dff3 3d32d800 bdb560b7 bc146d00 3d30742f 3dbd5a36 bd34c0a5 bd53324f bd8e5a9c 3dc9c13e 3cd7eee8 bde1deef 3c00d993 3e202ce8 3e44c1fb 3d8af3b9 3dfa745f bd742506 3d8d6162 bd8b80be bd1b3b81 bd17c702 3ce80dfa 3d2d1da8 bb05bbe1 bd6dd0bf bdd23761 3d83afa4 bcc8fc40 3d2fff62 3d6779d5 3d91c83f bd1d5558 bded5ca4 bc4e3036 bdc54d5b 3d5afa4b 3dd9bf09 3e2c98a0 3e02cfaa 3e48cdf5 3bad6164 bda69e0e bdac9e11 bc6b31b8 3d5584e2 bd6d781d 3d3483f0 3d977da5 3c19e99e bc9823ca be34aa00 be0cc937 bdfda1e7 3cbb56f3 bd6369c9 bd13f551 bd9a6401 be0d62f1 be1d9a22 be405190 3c33c8a8 3d3f7a63 3ca0ac4e bdfd3b9b bc0574e3 3d7242aa 3d90823d 3d98022a 3e0dc08b 3e0c1076 3d182c31 3df07bc4 bd8fb1e2 3a7f8eee 3dac8589 3a8e6168 3d9403df be229b57 bdf0adc1 38a36a92 be2254ed 3d489bc2 3cd84b34 bc6eed88 3db39ae4 bc86222c bd69e7ad 3d5d9153 3e16baa5 3dc5b213 bc47db7b bd3b13c6 bd9669b7 bdbdeb01 bd3f22a0 bdf35ed3 bd77927e 3d1c5921 3cd907a0 3d8de761 bcd467a0 bc322468 3d1d6c07 3bb092ff bc9be26d 39dfef4b bcdf7dae bdc9b63e 3c1600c3 3c7ebf23 3e0ce1e2 3d4ba376 3e26bfa4 3d40177b 3d3049d1 bcad63e3 bc391ead be0be007 3caf0608 3c33fcb3 3dca265f 3e35f7dc 3e13381c 3d9dbd48 3d0dbe80 bd9ccb1f bdde51a2 3d21cacb bd81fc0e 3c8c7cfb 3e0e0685 3db79f2a 3b25e4cd bd7c614d bd849159 bcebe9b0 bd4c2d40 bd96c5f5 ba919d59 3da94620 bd28f164 bcff91d3 3b984741 3d0d1e79 3a09d9cf 3ba22a5b bd9502e3 bd1ed04d 3d9c6de7 bd3f27e3 bda64b9a bc1c5739 3d99dc40 3da25764 bd478236 3d790dab 3e136224 3b9a432b bda86349 be1b9d2e bd43207d bd801020 3c4e9559 bd8f1abf 3c8c98ff 3d6c9515 bd20860d 3d89832d 3c2b0b0e 3d90e23f 3c703b1b bd317763 be1c5d4b bd90907f bdbb880e bd89fc58 3a9e8392 bc6782f1 3d242fee bd08d93e 3dffed93 3df0f907 3daab100 3b8fdc60 3d3f28ae 3dc5d809 3d9910cf 3daa23bc 3c4bc80d 3d4a29e6 bd25183c bde8453e bdd7f7c6 bdb63f58 bcaf76b3 bcbd80e4 3c9923ab bc8fc9d5 3cc091ae bd1b1d29 bca7a25e bc636479 3ca192d4 bca524b8 3c8f7cb1 bd622fe9 3d66955a 3d98f2c3 3daa09a0 bc1b7fb6 bcb8859e 3d713bfc bb9edf62 bd4219e1 bc4cf305 bb9c1b02 bce948e4 bcb137da bdf278e0 bd79b6a5 be060687 3c9e6281 bd700a1b bd2645b4 3cecbc17 bc918411 baabbfe2 3dac80eb 3dd4a3f7 3dcdbaff 3e21a196 3d7fd1d3 bd48437f 3d3f9750 3d4896b7 3d3c444d 3ca03c8e 3d5e7374 bd7217c3 bdbb9e3a bc5d64c0 bccbd389 bdb4057d bc5cb740 bcf9a18c 3c88e1ff 3dac094e bd0a68a0 3d7332aa 3da8f099 3d50698e 3ca6c247 be1e7715 bdb8c5d9 bd926911 3d95263a bda42a83 3cdec1b2 3cbae570 3d946c9e bd8021c2 3d465a98 3d32d54f bca50710 3dfb4f5e bd56a81e bdae5a3d bdd99ec9 bc461d90 3d182d44 ba64dd20 3da6e371 bc1a0286 3def82cf 3d2f5942 bca59033 bd2c1fc9 bcf9623a 3d1c8751 bd15d9ed bc092ebd ba7e84af 3d5053f6 bd66a5a0 bca06636 bdd25a7b 3b4f53fa 3d4fafde 3d18c1fe 3cfe6e1b 3b4feb42 3ccdc7d0 bd37fb51 bd4f1163 3d06fbcb 3d733c04 3ded1036 3b418dbd be03f63c be797bf5 be803f63 bdda03aa bde958ed bde72e46 bdf256bf bd7651de 3dd7bc31 bca42c7a 3db07780 3e4c5578 3e64df1a 3e80994d 3dff87cd 3cdf2174 bb958268 bd1214e0 bc2dea19 3dc64231 3da50584 bd098c51 bda3bee3 3da2aef6 3d331f45 3c27256d 3ce058db bd771c3f 3d400a9c 3d094469 bdc60c93 3c961ee7 3d1faac2 3d65cd73 bd7e5595 3d4fc647 bc1c986c bd8a0732 bc8c5805 bd17617b bd2ef33e bd2e525e bcbc7faa baf229b1 3ca20ad5 bc012fb8 3d8f8caa 3c58099c bd453671 bd0dc51b bd23bc1d 3d7ebf9f 3d9377b3 3cce6ca8 bda1c2af 3c985559 bcebc96a bdc4263e 3c0045eb bbafc4b0 bdb19085 3d612c7f bd74374a 3d6902b4 3d52f080 bc9cb6a1 bd8ebc2d 3d49dc15 bd8003bd 3bcae92c 3c644f96 bda16177 3c91eaca 3d89ad1f bc8949fa bd4e8af1 3d13c298 3d37efff 3d44e4ad bc931696 3d98615d bd750506 bc2daed2 3d9867b7 bce40425 3c930284 3b427078 bc5c6744 bd44cc59 3d47ed65 bd598df9 3d8bfece bd1be1ed bd28a451 3caaa500 bcc9d039 3daa7e31 3a4c0ef1 3ddaee16 3c845ad3 3d3cd2af bd0441dd bd89d7f3 be0144bc bd83f3c3 3d92d319 3d76daaf 3d02f483 be10c48d 3a85cb26 3c9bc45f bcd6a59f 3d32ba62 3d845c2d bcc106f3 bd7fb77c bd8c2933 bd80df75 bb68c392 3cbca21f 3d4c4472 3c07af6e 3cc99432 bd950542 bd71e86e 3cdaac6b 3b0ae0d4 3d188751 3d12bc54 3dfd9710 3c585448 bc684cfb bc021cad 3d1129c9 bd9d0051 bc938197 3ced6306 3d0b655b 3dcee58f 3d9968fe bba5b211 bc5b33df 3d0ff85b bcbd9823 3ab88b36 bc7dfcd7 3ac0ebfb bc30b3fc 3c784981 bd3c150b bd99d45f 3c8ac3ea 3c30c175 3bf8125e bb42ecf2 3c77b4f1 bdbb4460 3d9441b9 3d6697a5 bcc793ef 3bd7839b 3d8f86f1 ba47a2ed 3dba6d5f bd046e9f bd9099f1 3c208485 bc0c42b7 3c893988 3b0b554a bc125021 bd8ae564 bc178c38 3c9647aa bd73eed1 3cdaa265 bcd2583e 3d107775 bca2a41e 3e01d72f bb9fd885 3c886acc bb9032de be2d3030 bc69855a 3d833355 3d717582 bd50f508 bd7eef2c be393a09 bd7b85c4 3bd51925 bdc57ad5 3c24d8f4 bd73a5cb 3cf07c67 bd18a560 be06d410 bd1785ec 3d4fbf23 3e5f9665 3d830ce4 3b928584 bdc57395 bdba37b7 bc24ff07 bbf3bc55 3ca74829 3e7131e7 3e928c22 3e1d1ae8 3d3f8a03 bdfcf370 bd72a245 3d9289e2 bc9c480f 3d9782b6 3e98589f 3ebccf56 3e466cde 3e211a09 bdebd8e7 bd93e304 3de04f39 be777d14 bd2de1ce 3d9f52f6 3e323878 bdd49971 bcc46c70 be5a758f bdb10a9c bdbce028 bd16a62c bd0be768 3da4f7f5 3d3338e2 bd4d498b 3cf4b55c bcad7f93 3d2e00ee 39c70455 3d09e596 bc8aed91 3bfbf521 bd0ce38c bdb83d72 3c9bb1c7 3d9b18bc 3e3adaff 3b895c2d 3d83010d be269d08 bde1e81c bd0a51a4 bd9a189e 3d2db817 bc2b7686 3cf189e6 be3614c3 bd642a91 3cc59228 bce883fd bdbda61b 3d17374c bd7d19fb bd571f3a 3d925986 3d426302 3d7cab0d bc9860cf 3da5a495 bc0c4ff2 3ce2b9ee bd905d8d 3c70551a 3c9403bc 3d126632 bca83aca 3dac4101 3cd81b82 3bccbb3c bd470c12 bcafe8cf bd37c4c1 bce3e4b8 bd02e814 3d3645bf bd6af22c 3d4c11d3 bd6be95c babb7d29 bc921090 bc8f2665 3d3ec624 bca320e8 bd202253 3d3e2fac 3d818002 3d6be029 3deda97d 3e09c7de 3d946114 bb5dd01b 3d332029 bbdcabce bd34aff0 be110d11 be72d43b be106cbe be04392f be24198e 3dee1158 bd90ed2a bcb4d195 bd6fb213 3acbb196 3d1490f1 bc362f1a 3de6ac88 be06f14a 3cac62e9 be21e3a9 3e03382d 3cd3f0be 3c0573bc 3d979790 bd059d49 be0f5f7d 3e803fa3 3e88dacc 3da6563a 3c940436 bd3ce605 bcb5dac2 3d9214a2 3b965136 3c1f584d bc23a1ef bd1f229e be1573e5 3ba532e4 3d379221 bd0b5f9e bdd3269b 3de1d7f4 bd8018ad 3c5dfd4c bbf0afb5 3c9f7c19 bd11074e bb8c2d0a 3cab5749 bda81c40 3d69ccf1 bda49536 3c0c1214 3d1bea86 bce3e980 3d004848 3becb3c8 bd8d8b71 bd887dac 3dc329ec bddc9ddf 3ca5f4bf 3c68d697 bc134bd8 bc9bb068 bd9bef07 bd0f8783 bd87f822 3dcff27d 3c86bc20 3d6c62fd bd7d5064 bddc4221 3d343fa7 3d90e806 3df87bbe 3e0ef846 3eba1b81 3e0c900f 3d9a6ea5 3db7dca4 3bd4108e 3d0b0a31 bd59d417 bdb86326 be5086fc bd686b93 be95a122 bb7dbc14 3d9f6848 bd93aa7b bc9bfee9 bd24bb4f bd4f2d2c bd154283 bcf84629 be1f997d be9ffb26 be842727 bec4184f 3d2b06d1 bb8ddc19 3d4397e4 3d66223a bd2b7b53 3d58cba4 3ea6f3ce 3e9501d5 3e25548c bd6ba498 3d0de01c 3b6555a2 bd57f516 bcae3e21 bcafd462 bd4daa31 bd92d922 bdfbdbed 3d4c3816 390b75cd bcfe21ef bd2ec281 3dd8e403 bdd0e9a7 bd853fa9 bd22bc52 3c2f972e bd0a7660 3d11b77b bd53c34a bd5c9ce4 3e40ecb7 bdac141b bdb16ef1 bafd565a bd50fda6 bd1ea8a5 bd9c776c bdeb0861 bc85402c 3e07f6f4 bc3c5081 bc5e2a81 baf1d219 3cc12ac4 3c45b426 bd4cde79 3b18e968 bd91987c 3e3cfa44 bdc90768 3c76ed4f 3bfa1298 bc12a01b 3da802bd 3e560a6f 3e706f66 3e5ed811 3f10e829 3e3b4958 3d79d332 3db79d48 3e18b781 bdf39209 bd956133 be56d21f be2fd7aa 3dc7609c bf052888 be86f9d2 bdc9e2b1 3d9e6a5c bdb58e30 bdaeb280 3b99b7d7 3ba7e2bb 3e58d57a be8ef6ba be433075 be26b150 bdfdf085 bc3342b1 3d2e456a 3cab919b 3da732c1 3dc9af9f bd7ec0da 3ddba455 3d91483d 3df0d87d 3c0fab38 3d0a4963 bd4caa02 bc014bf3 3dda1c6a bd899bf5 bd8614d1 be0fde73 3db7a509 3cbfbdd4 3bacca4a bced4998 b9a5269c 3b1d025b bda3c13a bb9d2125 3d7413d9 3cd5407a 3dbff53a 3d38b8ec bbeb56d1 3cb215ac bc0e5706 3d8ddb05 3c6171e4 3aaf7399 bd81030e ba89bc6f bd334ff9 3bae3c21 bac8a53a bd600994 3d430154 bd02506f bca3337e bd8c807e bbabc810 bcbea411 3c7a31d2 bc899138 3d0e44dd 3c8ee3ef bd3df43a 3d707c23 bc0073b2 bb5c25f0 bd098302 bd965e17 bd49fdad bca2acff 3d93d4c4 bca0f14e 3cd66714 3d734926 bad18830 3cd64a24 3d0cca60 bd8ec8de bd0ee8ea 3cd42107 bd84b178 bd00e378 3d3e5b44 3dc50a99 bd8e561f bc250033 bd4230d7 3a51bbe6 bd2d5196 3ba8e4a4 bc0a8d95 bd065879 bcbc940d bcccc241 3baac548 3c74234e 3d0bc85e 3d379344 bd65ad02 3d7caa74 3c82ddc6 3cdc881c bb4dd291 3c7890a0 3bbd26a6 3b9f676d 3cb0f8ba 3c710596 bd100bd4 3ce79a4d bd470624 bd1466b0 3d93e9d1 3b2f4ad5 3aea4121 bce58f28 3d15fa3f 3af3a1e8 3d14d45b bd0d2fd2 3bfbc200 bd30f374 bd66fb0b 38f53dd9 3cc6e1c2 bca51cd9 bd2ba481 bc357980 bd3df148 3d3ca195 3ddd8215 bc3e85c9 bc66d297 bd596f04 bdb0843d 3d52fb06 3ce940fa bce6c660 bbea836f 3deb954d 3cf83dda 3d2f5734 bb4c468e bd07b7d9 bd76633b 3c9276cf bde99e85 3d954456 3d5f05eb bb2af974 3dc467c0 bd2c0f1b bd2b7227 bcf1661c 3c4a9bb6 bdb3d1b7 3cd27b13 3dca32e6 3da694b3 3c54826b 3d4e280f bd3d91c9 bc2212ab 3cb39d85 bc921a79 3d397537 3b42f861 3d7ea69b 3d053f60 bd3abd1b bd1bf1a9 bd2408af 3ba6d2e7 3cb81a4c bd14a679 bca20cea 3d00782c bb2038f0 3c0296c4 bc9f7de9 3d54e718 3d3e0ff5 3d4217c8 bd4d4505 bcb8614f bd4225d7 bd79d06f 3be72429 3c1780f6 bce1a20b bb28e5a7 bca221a9 bc575b43 3cde8ab9 bc53392c 3ce288fe bdabd205 bd2eb2d4 bcd8489b bb410dac 3d90f6d2 3c996064 bd3845fb bcaa895d 3d1b7078 bd39dd3d bc59cb00 bc8958f6 3c5dc059 bd0ac356 3c4e0b46 bc8e0287 bd32f8df bc582c14 3c405fa3 bd70ef85 3bbe70e6 bd6c993b bd9f1376 bd04ae6e bd33598d bd445ffa 3d56ebdd 3d4e08c3 bddea6d4 bbc42c2a bd818ac1 bd16af17 3dc6f55c 3e0fe6d9 3debc431 3e85a4fe 3e2fbc71 3da4d3a5 3d588672 3ce4b5b6 bdb7802e 3dbaf27a 3e018b3b 3d0c3cfd 3e52b6ec 3dc2d93e 3d2835e0 3c5829f8 3d17ac45 bdbb1786 3d225819 3d8e5a4a bcdae667 3df48fe0 3bf2b53f bd60a571 3ce8f827 bdb0cca2 bd66c21d bd097450 3d5a11cc bcfc3864 3dca6225 3cd05d6b 3d73787b bd1556de 3d821867 3d9b99d6 bd406000 bd5f7667 be157bad bd920bef bc5cb636 bcf1e27e bd303be3 3c2aa767 bda8e1f0 bd9b3a36 bc8ab5c5 bc9fbfee 3dc8a541 bd2dcf42 bcd7b031 3ce320ac 3bdaeff1 bd4a9f37 3ca4fda0 3d0dcca9 3c930878 3d5325c3 3d595704 3d200b4e 3bd37c7e bbc3e6a5 bda72924 3cda214f 3dcbe99e 3db349bd 3da9d59a 3da5a5f4 3d8bbf9e 3d353334 3d08309c 3db43eba 3cc7e14e 3dd2cf0b 3dea6ec7 ba667dcc bccb290b 3d85f2a3 bc720439 3c76c28d 3d29ffc0 3d9b95be 3cf6dd32 3d1f221d 3d0ae55c bb891909 3dc9c55a 3dd52726 3d8f8dce 3d872ab9 3dba5a41 3c87b600 3e20e239 3ceae678 3d2e4289 3ded1af1 3c5d4797 bd70d55b 3d6bdbe4 bab4d5a2 3b8be36f 3dfae3df 3c9afec9 3cb444b6 3c5fb3c1 bd19882f 3d9b90e0 bd97c910 bbd927ad bce434c0 3d3902dd 3c521350 bd0dc9d4 3afb490b bd39748b bd897b73 bdb76f08 bd94470f 3d0a4889 3cbdcc8d 3d7676bd bd330e92 bcd98c41 bc846006 3c59e604 3dfba5a2 bc8b4966 bcdf9fdd bd5a1dc7 bc6c5105 bdb13582 bd6fd912 bcd843fa ba316256 3d420aa9 bccc6f75 bdc37783 bdc147cd bcaafe3c bdafe735 bbec9b87 bd11ae39 3b429c06 3d8b332f bc74cc94 bd7fe6cc bda5c296 bdf794ce 3c7bce8a 3d041a58 3d5e3ec1 3bc9db4e bce87541 be140e18 be17a89e bd3237ae bd2648a7 bdd5de18 bd4904b9 bd4bb723 bdcf824c bd176d05 bd946b7a bd4f7a84 bdce3893 bd7bcb42 bd02b005 bd30bfc3 bd353cb7 be4dd7f7 bd595d84 bd84c5f5 bdc76278 bceb5ae2 3a84bd62 bd4a5b3f bcfc64cf bdb9d42e bdad12a6 bd34e543 bad2dd8e 3d177ae4 3d417abc 3c0173f2 3cb0c787 bdb18e86 bc17f520 bd7b6ce1 3d002643 3dadbd94 bd99cf2a 3cd30722 bca9a8e8 bcd4fa8c bd1a7bb5 3c4d3818 bccc2a36 3d1e4217 3d88b071 bd438b5a ba4e6441 bce3d174 bc122f06 3c2b5357 bcdfe71b 3dfcb13f 3b8dbbec 3c3176c5 3db463e4 bc46babc 3c8bf37d bd52d1c0 bd31d2f4 3c21ec57 bd3d4ab6 3d854c59 3db867da 3def0459 bcf45054 3d45d43d 3d1ff552 3d2b45c5 bcbdc204 3d506a14 3d253f6b 3c8cfa9f b96b3e61 bd8272cc bc4dfa8c 3d48546f bca46ce1 3d7a7df3 3d8bfe3e bd988d0b 3b02f83c 3cb85342 3c85b478 3b492672 3d6ae45b bd4a2b19 3c46d477 bd36256f 3d6927af 3c9413a1 3b87a1b8 bd5ad8fa bd6fbf7d 3d8d7cbd 3c344d79 bb57109c bcfb5693 bcc50bf5 bbd82764 3cb5e642 bd0488fb 3c7afe7d 3d775014 3c954ce6 3dc306dd bd5d4158 bc97d1ed bd21bf44 3cdc96d4 3c84d63a bdb1d143 bbdf5799 bd41fab2 bd0a163b 3d2cd13d b9269174 3d4e00dc 3c00fb93 bb89bf55 3ab3192f 3c04bbd0 bc54b4f4 3d27c70f 3e09cfed bd8c64d2 bbd40192 bc9aba2d bd5e1204 bc7c186f 3d93b2b5 3c745137 bcb94417 3da19fdc 3ccb9130 bc850fd2 3c88c523 3cd91b9e 3bba1d30 bcb9f33c 3ce9dd7b 3c893fe3 3cc24030 bd60813e bd478903 bc268bfe 3c90a080 3d0f16b1 3cb65c24 bd16cbfe bcc74294 bd3f12a8 3ce7131a 3c15ba3a bcaea059 bd229fb6 bd08e6e2 3b00a95a bc281cea bbed80ee bc02f47c 3ccf6fd0 3a23cafd bc50ab51 bbcd0dea 3d8f6121 bced766d 3cbca0de 3d852200 3c31263e 3cc0df81 bca5049f bd659143 bc15c09a bc7b8c97 3c9b04f4 3d65c25f 3d48bf0e bda8bbf1 3c8bdc10 3bd72ee6 bd9c2665 bd64c8f7 bb918982 3cee81a6 3d041240 3c3a1e3c 3ca146e8 3c877240 3cc42ae7 3c79a42a 3c4b7410 bd0b1110 bc0887d0 bc95d84f bcbcd076 bca2cc22 bd6a2c22 3d5e280b bd544402 3d8ccebd bcd761b1 bcef1ec2 3d3b8b2d 3d814f1f bd2f40b2 bc720bb0 3b3bb3eb 3cf2f132 3cbb5dca 3d0b06f0 3d54c41a bcdabec9 3aae6b7f bd1fd0fa bda7227c bd2413f0 bc351e5c bd2615c2 3c9abdb7 3d734068 3d93e182 bd226512 3cf95c1a bd910925 bb0c8801 3d58b0ef 3d0472a4 3c41568e 3cfac212 3d199ae7 bc5139a4 bba57956 3cd1f200 3cc74a65 3d5ee0bd 3c98492f 3d61304f 3d89c310 3e037537 3de50471 bd052040 3d0869ab bc3ac396 bcc0c09d 3dfe74d7 3dac7548 3dcda157 3e1c7bd8 3dd41ec8 3d0caddf 3c7944e1 bda66f55 3c4a1d03 3d8fd432 3e03dfce 3e196e49 3dcb2b30 3a724d91 bd60d360 3d0e0202 bd1bff8a bd7ddf3b bc7b01ef 3e20036c 3d3727e5 3e0303de 3d95ff58 bda3f641 bc06c6ed bd749097 3bcda28d 3c96e4d9 3d8a700b 3d0ae82d 3d8d606b bc820c32 3d380bcb bca52464 bd24905d 3ce203f7 bcaa37d8 bc8322a0 3ce68c75 3db040d1 3d0a01e8 bd02adab bc435f53 bd8ddbf3 bcc7f304 3d6d835e 3da87963 bca26850 3d37de65 bd68d8e2 bc5a5ff6 3cca6d5a 3c86471d bd3ee02b bd426bf5 bd0c6b4d bd7bb250 3cfd5b9f 3cea0313 bd8bdedd 3ab6707b 3d24bf97 3d8ee907 3d3b9e14 3d60ba1c bd3720e1 bd2055ca bb38dd15 bcba252a 38fdb9a2 3ce8d1d7 3bc542b2 bb42582a bb4b1005 3d480931 bd865b3a 3d3db1d3 bc722d98 bc90e569 bbb2a63b bd396dc9 3d92fed4 3cd043fb bd00fe6b 3d4d9dc4 3c4073ba 3bb00493 3daa8dff bbc2ae02 bd865e59 bb587344 3c4a76f8 bbf7ce0e bd1a1900 3d7ef946 bdb864fd 3c012c72 bd830119 bda0b28b 3d350499 bca6062f bd6910ea bc036ca0 b9096d5b 3ca18a6a 3d6a9787 bd2b74c5 bd56588a 3cd61399 3a9355e3 3b706682 3d90581e 3d268010 3c95d4ec 3bbbb32e bb9a2efa bceb5919 bd1dec16 3cbc7b2d bd2d0570 bd7ff679 ba54be28 3d0c6dca 3cd9cd7b 3bcf8502 bd3b707b bcac28f6 3da09ef2 bd88d96d 3d1beb2a bd16ee7f bb41aefe bd232cb8 3d143ace bd1c5aea bcf3e4e3 3d8fcb29 bd37af78 bd04a5a7 3da02f8e 3c0d26e8 bccdb88c 3ca6915b 3d317687 3d7b4fee bd2fe437 3d032082 3ca471ec bd0eb6b1 bc8a21e6 bd1e7624 3c7e9c4d 3c94a629 3ce24d10 3d22ccb5 bd05016d 3c6a96e3 bcad5446 bcc6117f 3ce398f9 3d4f144b bd1d0af6 3d159d5a bc7d27e9 bcd788c8 bd0c683d bc4e7d29 3b83c37a bd85ed45 3bc6184e 3d497118 bcfc527a 3c957d9c 3ce1c96f 3ce1bb54 bb811e42 3dbadcdd 3c7083d0 bced238f 3bf54f35 bd718220 bd62d623 bd230806 3cbedad9 bd4898d8 3cb35530 3cdb0272 bc6f9c4e bd3c1e78 bd165917 bcac250c bc93f9af bd6423ec 3d131044 3cfc7e2e 3d4f394a 3d3e9dfe bd3851d7 3d70f545 bc957b69 bd70127a 3d60918c bbc2821b 3c8c1140 3b7d6892 bcd966b4 bd6a14e0 3d70c3ad 3d3b673b bd01af1b 3bfb7650 3c51d778 bd6b7ae5 bc116916 bd8deb93 3d79c325 3c9cc9b0 bd3c596e bc03d5fe 3d018038 3be03fb9 bd3294ee 3b8c535e bd510402 3d18998b bd501c56 3c5c5003 bd118d30 3c3b459e bd6447b0 3d16efdf 39a79970 3cebae58 3cc23fe4 3c964423 bd806969 bc1fad3e 3d61a7c3 3d565978 bcb6cc6c bcaf6fb6 3a9becb3 bd10bca0 bd48d176 3ca7fe2c 3bbba4da bc95e5dc 3c8e5cc5 bb1fd63e 3d64a9e8 bccbfb5d 3d185987 3d898a1f 3cc3f312 3cdc2c72 3c45f44c 3c7cb731 3d895375 bd64fd06 3d89a323 3d366cf9 bbf385f7 bd3c49e0 3c332f26 bd90982c 3c2cc088 3ce676b8 3d0338c8 3d0f6a3a 3d3f586a bd48ff68 bbe4b4d0 bc37b29b bb894dbf bc599728 3d8bd375 bd325fb6 3c973de2 3ce05933 3d38c22d 3c35f148 bbcaa838 bd0e8328 bcf066ff bd15dee4 bd58f055 3c91a22b bcfbd007 3d4de4c7 bb96ac99 3c903b01 3d5cf842 bcb90ede bba8d7c8 3d020251 3d1d7cb2 3cc39f38 3d081ce9 3d19734f 3d034d43 bd0cf32b 3d22d6aa bd25becd bd38161e 3d1e1180 3dbf66c5 ba72ea2b 3dccde01 3cb64409 bb113195 3d98a0a9 bb966056 3d973f92 3d4b6288 3c6b714d 3d75a265 3e24d976 3dcdc703 3d296af1 3d845fda b8a4667e 3d7e9c30 3d28c583 3d8432b4 3e209dd4 3e550213 3d96fc13 3dc6e4cc 3ca91bf3 3d823d2d 3d5605f9 3d9191fe 3e238dee 3e23f488 3e535acf 3e08a4c5 3dc2e5d7 3de5f5c0 3dd65977 bc98af68 3ddba367 3d30d95a 3deff6e9 3df3b665 3dabc61f 3cd743e4 bc9a78ef 3d987f73 baf3acf3 baa39d4e 3db95cb7 3d582760 3d418ca8 3cadaa41 3dc08d79 3d33c48b bd5bdf81 bd45756b bb97edd5 3a2ee848 3cf08b97 3de28d9d 3d10f7b2 bb80753d 3d44b1a1 3b946cfb bd125373 bcc262a1 bbc1ff0d 3a9ce931 3d9da71a 3d5f8da7 bd5de655 bc43b2bf bceb060d 3c37b2ab 3d45af14 3d0bd0d9 be03bf0d 3d06a75a bd9fe8c0 bd506c42 3bf0627a 3e0c07eb 3cbcac70 bc2cd2e0 bba1fddc bde078f8 3d57005e bd22b2d4 bc3da272 bccaa52d 3ca77e5b bd85357f 3d4bb57b bc860781 bdafdc1f 3e1002b3 3d81b247 bd888449 3c6341af 3ccf3030 3bd9d489 3ad44592 3d000d0a 3d9debf9 3e86e43c 3e059941 3d52e357 bd87511f 3cef6157 3e4bd002 3e8a2ae4 3ea0df1d 3e9182ef 3edc5f48 3e655541 3e469183 3d199b02 3dcf88aa be11995a be9795dd be921136 bedd14a9 bea91dfa beaa1a9c be77607b bdf8b093 be487841 3d08e5d6 3cc754a4 bd0f5a9e 3c14c558 bd5af5dc bd1c6bb6 3d3d92b1 3c2c982a 3beca049 bd0a5a25 badafbf0 bb69f069 3d45213e bda50a80 bdade6bb 3db4b4db 3cca7879 bd2288d2 bc0ca059 bd375c0c 3cbb4a2e bc8715bc ba19063c bda60746 3d0f3124 3d61dfca bd127fa0 bdea04d1 ba32e697 3cc89bfb bc821301 bd548d9c bc04a70b bcf812ec bc5c2372 bdbc2e50 bd621343 bd3cf8dc 3d3bbd31 bdb016fa bd1595e4 3cab22ea 3d736d97 bd73387f bd97ebea bd8ad802 bd9840a9 3bcd9839 bcbd1a7c be08f4b1 3cfd3cf8 3d800286 3c2dda41 3d5e91bd 3d8804ec bd5b03a0 bd12cc66 bda70d79 bdd4bb95 bd447097 bd028a5b bdb19fd3 b92f3674 3d9ce315 ba5b166c 3d451567 bd110e6f bdf2aed5 bd6a4012 3c113f78 bd1cd02f 3d61880c bd5e7651 bd80489a 3c6131a0 bc9363b0 bdd4de3e bd6d7b4a 3d765993 3ac86c85 3b19a56b 3c8c40ac 3d7d87f3 3def60f5 3ca3873a bd1b7f9a bd01ed83 3c75d807 bbf83cca bd71b7c9 bc49c7dd 3d897bc8 3d2cdba4 3dc13c99 bd9d26b2 bd2d3641 3dafc696 bcc46c2f bd279507 be25d8dd bdc446ea 3aee036b 3d3f49dc bdd3780a ba79847b 3e2350d2 bcc20f68 bde7db48 3d903770 3d41c88a bcf3988a 3d044d07 3c6b79a7 bb33aac4 ba4265d7 3d0f506b bd06cc3f 3bad7d83 3d307eda 3caf0424 3da3b3ef bb458103 3c7c8bea 3c73e99d 3da0e5df 3d500192 3d86380f 3cd90d35 bd8b2ae2 3d72ee98 bc7b493e 3dd82c8e bd085c48 3d6f5b92 bc2968e2 3d3e114b 3d9b927f bd8032df 3d2bb938 3d490452 3d7948b3 bdbdad34 bbec40cc 3dd12c2e bba41f07 bca7012a bb48d5f5 3cc26d42 bcc002b3 bd7b0f5d bd8a777a bca5fa3e 3c76ad2c 3d582322 3c6de0d7 bce66c6e bc0835e2 3dce70ce 3deec49a 3c1ed785 3e0631a2 bb2efd66 bc5e2982 bd522299 bd0806ac bc369909 3c58fb3b 3cd8edf7 bc82052a bd8492aa bb853d64 3bd3ff23 3b3cd36a bd4406d0 3de9f74b bc82a446 bd227a82 bd19a025 3cba3712 3c80f834 3d2461b0 3d876489 bc2e7b95 3d467e3a 3d8d320d 3d5df6d4 bd498412 3c9024c7 3d6d3eef bc6f7e0c bcbbb43c bd837b26 bd581259 3e37f145 3ca0b397 bdacfe48 bdaf1b15 bd5e76b0 3d79bcb4 3db6ff9d bd6d199b be0353de ba675aea bdb96b94 3c451c8d 3e0194ab 3cbfaf8f bd31a2f6 3cf94216 3d8b7918 3a5b7383 3ca7165a bd3e3624 3d10a9cf 3d8ebb0b bcb6b302 bd18cad2 bce51281 bcce54c1 3a9ca08e 3cc07c18 bacbbed1 bc20b4c0 3d800ec0 bdc9df40 3d804968 bd6e343c 3d84fe1f 3dc8db3a 3dee2b89 3bf3c3bd bbc857fc 3d846eee 3bd06141 bca10f5a bd35c7b5 3d3f8740 bbb8e2f4 3d7f77c1 bbee7bac bdd0a653 bc7d42a8 bd61fea8 bd1426a2 bd50a455 bd2748d0 bc578202 3dd5ff06 bcf56b7d bdaad62d bdbc26e2 3dff9b12 bd2ccd9b 3defebeb 3d925ca8 3d9553f9 3d8a444c 3dab9768 bd467671 3d0cefee bc650321 3d143df2 bc8d15fc bdc37f10 be06fbc6 bdcc4f72 bda3352d 3c040b50 3d91dd5e 3d1210d0 3cf686a6 bcc607e4 3bc43e84 3d08fd1b 3e03ef18 3db0261b 3c4f084f bceae948 be012dca 3dbf64e2 3d7f7429 3b924649 bdc650df bde9de32 bd194ea7 3d5b72ef 3e1d6676 3ad0b7b3 3c96cced 3d829a86 bd42601d bdf867b1 be6def37 bd6e698f 3b975150 3ddab417 3d75c0d9 b914f4ba be43ad5d bc3ad578 bd41be5f be6f476a bde7b30c bcdb0b5f 3e150b93 bd789dbf 3dc3fd43 bd2045aa 3cf3b13d 3dde3a96 bd8a1df5 3dc9ee82 3dafe2df 3dfeb2c5 be19863a 3d142522 bdc714ad 3dd6e587 3e4c14f3 3dccfffe 3dc3bb99 3de0127e 3d2cf1aa bda61a42 bdce7041 bd720aaf 3dcc9969 3e14fbd6 3db2325b 3d98136b bc50615d bdb2f3ad bd71db03 bdf8dfb9 3da3ef7a 3e2e9d5c 3e0a58f5 3dba88aa 3e00409f bdb2ae64 bd6ace99 3ce60ec0 bd7424cf 3cf29e0f bda4cfea bd85ffb4 be6ac14f bdae09bb bd45141c 3cd796b7 3d85402e bd514c50 3d10d421 3d7ecdb7 bda19f3d 3bdb1624 bd97dcf4 be1b693e 3d8139bd 3df96dac bd10c1fa 3e2668e8 3dc1f101 3d25195e bcbd4ef9 bc72d223 be2497aa 3c8b9f2b bd80d4fd bcde4a21 bd2a3a41 3d94b8e1 ba1c8bd0 3db64223 3ddf732d 3d4c090b 3d30189b be15a690 bdd44523 be1725ae bd879ab1 3cd8aa99 3d8dac23 3d9f44b5 3ded23cc 3deaeed0 be2945d4 3e1c13e1 bd9d39bc bd6a5c70 bd6803f3 3dbc9277 3d272f45 3e07cac1 3dd4bb68 be1cc22d 3dfb7fb2 bdc6d8b1 bd833954 be0c9bce bd8fa4c3 bc5746a5 bd362a41 3de95aec bca2e690 3da8aa44 bbb0493f b9e9cac0 be12bc4e bdfce013 be08b6af bcea04c8 3e028e88 3d9d659f 3cfcb561 3d315edd 3e01912e 3dc08b2a 3d0f5b41 bd5c8364 bd2a1759 3c3b15a2 3d8ec974 be1dfe62 3d132df6 3d86f0e1 bd57e998 3cdb044a 3cea5b12 bda35da6 3c3edf63 3ca5e88c bd676551 bc292e07 be26b172 bd6dc865 3d0d40d5 bc763aaa 3be26056 bb81a8c1 be46fd47 3c0cb82d 3db8cfb3 3d6ef895 3d7ba90e 3e116780 3dbbdf47 3d16b920 3d07c2cb 3e024d66 be265194 3d7fd663 3e2542e0 3e5446e5 3e0dbcdb 3dbcbd0d 3d3a2f13 3d933d47 bc786878 be27136f 3cece928 3de4b7e7 3e0a0116 3c2da2f8 bdab0279 bc49e6d3 bd2531af bd8ee945 bdd3e313 3d502d6b 3df67338 3d8f71e9 bd1c7718 bdca7c95 bd1315b3 3d8c34d2 bd153402 3c182a8e 3d8ee9e8 3e11f66d 3de0041c bccec2c5 bd1deb63 bd31bee5 3dd64b3a bdbd4fd9 3cf88bf1 3cff8454 bdb5d603 3c95e97c bdd6797f bde683fb 3d497c55 3d5d6f60 bdda7f0c 3c807ef5 bde25128 be4d1034 bd935827 bcd6c00a bde26876 3ccdb8c2 3e381e74 bdfe9b1e 3ca8c4de bc50f8b7 3d578559 3d8e42e1 3dac77d6 3dd3d75b bd605ce6 3db898cf be0fcecc bda076bc 3d457785 bca8b59c bce314fb 3cd71f67 bdfd572c bdd449be bc8d4c04 3d7a2a01 3c4b81b4 3dddbbc1 3da82788 3d993a56 bb895138 bba8b387 bc2c356f bc7219cb 3d1186de bd342dac bb13abc5 bd7f4194 3cc6396e 3da87fb0 3ba7b56f 3c835a5b 3d0f8445 bc69f110 bd34547e bbc8edd2 bc41a44a bd1db19e 3d6d8484 bd33379b 3d674734 bd19fb64 be1e58ac bd557540 bc984332 bccd7da3 bc9e4ae2 3b806146 bd18cefa 3dfbfb54 3dd5131f bd008a6e 3d9d3581 3a0ce916 bc38243e bd598f1f 3d89d0e6 bd5444c2 3dd6d995 3db6262e bd48f604 3d69455f bb8ed2c3 bcd9af20 bc9c50c9 bd7fa33a bc510d6e 3d6cb44b 3d7eed81 bdea2e19 3e349d2f bb80672a bdd377cf bdd1c833 3cbb69a8 bd5fb7cb 3d163aad 3d943b2f 3c07a445 bd6c969c bd6f4731 3d064f47 3db1c193 3daa1b43 bc861b19 bd6a98dd 3cfeb55b bdbeae60 bc8084a2 3d1125e9 3cc061a6 3cb21fb7 3d2ae239 bc8f63fe bd4297de 3c3e4166 3af1729f bd6f01ff bd1be8d6 3dbde50c 3d908b4b 3c70fd68 3cbf469a bdb4426d bc89683b bca270df bd010073 bc576b13 bc75c2c0 bd4ddf76 3c6624f9 3d2400dc 3db0c3fc 3dcbd752 3c6785e0 bcf98cff bbc7fd6e bd3ad9e4 bd26680a bd872da9 bbbbdffe 3dad3a3b bc966121 bd831deb 3e00ab8e bd161498 bb34735a bd9d9ac5 bda0c205 bd40f1a8 3d2877ed 3df33380 bd8fe781 3da63fbc bd834582 bd3a4b17 3cb24b3b bbcff0e9 bd966b30 3d824461 3d142d7d bd0f221b 3d9ece0c bd8bdd9a 3baab9e5 bd48bf7b bcdf29c9 bda3e755 3d38518a 3da123ab bdae0209 3db1a406 3c98beb8 bc3e96ea 3981b2e2 bd3bce92 bca3bf5b bda63efd 3d56faab 3ce11273 bd2699d5 bdcfdbf4 3cf5597d 3dc22b0a 3dc469f0 3d92ddbc bd8d469f 3d91b28f bcfad1b1 3a70516e 3c2f30ef bd5bcd14 3d4e4c62 3d900533 3d19b676 bd263219 3d4070ec 3d39da20 3c25ea44 3d12a1c0 3c8cbfa9 3d6caed3 3c77fdc1 3c95b9d0 bd84cd6a bd8b2304 bd32a1c1 bcf235e6 bbcf0610 bc70611c 3be2fee9 bd1fce8a 3c301e20 3c1aa881 bc947ee7 3bdbd5b5 3d26bea7 bae85470 3d5e4f36 bc106b75 bc9973e3 bc0758dd bb8a3c01 bc46d20b 3ce2ab80 bd2c825e bcce702e 3ca3d63e 3d43a4b5 3c2494da bdb20f37 bc19574d bd045fcc 3d1f85fb 3d1d57fd 3bdffba1 3d295f66 3d2c406d bd8ddfe7 bc3289dc bd4bcfaf 3b681229 3c107b7a bd362e12 3d63015b bce2f22e bcc419fa 3ca4988b 3d9cd2bf 3b690362 bd149497 3d5b5a10 ba1b79f8 bc90ee06 bd207b75 bd15c920 398367d7 3ab04b76 3d83598f 3dad5fc7 3d3934ad 3d2a39dd 3cc3802d bd903519 bd929547 bcadf32d bbbd24ff bc649bb9 bd540d9e bc8fd815 bc9f1aa7 bcaf51ed 3d1d7981 3c37550e 3dbd99f2 bd3c0410 bd361426 3c863077 bc997afa 3b175fb1 3a90fc86 3c9802d1 3d8a01af 3daa5f72 3d6b76f1 3c382ddb 3c381034 3cccd92d bdab750f 3d13395c 3da63041 3d88b2f0 3dd11d96 3e17f7d7 3d0ab055 b954df92 3c88a8ab 3c9472ba 3d8e3200 3dfefc07 3e28ff49 3e767fe7 3e131afd 3e07afd2 3c8c2f08 3b8845da bc1eb588 3d5bbef5 3d271b89 3d98e6ef 3e7a9f69 3e3523ad 3e3170d5 3bd12f4a 3db72a63 bd67b39a bc468ccd 3d778f7e 3dd46f05 3e1b620e 3e135341 3d34389e 3aa0791c bd30f0eb 3b7564d4 bca3aa91 3b43288d 3d8756d0 3d5d82f1 3cffc697 3c77c698 3c3dcec3 bd758fa1 3a97c96a 3c6cf4a0 3ce1a514 3c8d06cc bce33202 3b096578 3d4328a2 bd7d35d6 3c84839f 3ac54305 bd4b89f6 bd3ef188 3cb4ac1c 3c6fa169 3d14842b bd3c6107 bc695070 bc938b0d 3c0c8cca 3cd22de2 3cdd4dbe bc247db4 bcb12a8a bcc9fcb7 3d65d026 bcff49aa bd6ce001 bc1598d2 3bf34181 bc80031d 3d02efc4 bd67ffff 3d17fc62 3da002e0 bc6756bc 3d13251d 3cb79380 3d489910 3d4f99b9 bccb8b69 3c0d5d88 bd30d6ce bccbcfae bce7d14f bc81667d 3ba4a505 bd2c93d5 3cc16c64 3d7b40bc 3cf5136b bd86e565 bd51ab39 bd5cf831 3d82a506 bcec3a24 3c52a948 bd599807 bd898e4d bd93b08a bd9f87a2 bd197159 bcabc878 3d33120c 3be3c172 3d0e7bc8 bbe70a02 bda75d01 3c2bdf38 bdb06914 bd893100 bd3f7ec2 3ce6bee7 3d30b318 3d36d4ff 3cbf769c bd344bd8 3c91ca03 3ccb142a 3d02b7c6 3c9dabdd 3db7356e bd2c8333 3c8f99a1 b914fc9f 3a5b38e2 bd977425 3c6dfa10 3bda9c02 3d3820ff 3d7ec81c 3ca46f77 bce86f1d 3ce1d58c bd41dcf6 3d3aeb2f bcd1d613 3cce2ef1 bd4e717c 3d29545d bd5877f8 bde36872 3e85d6b3 3de50b7e bdbbd340 3dd231f1 3ec2fa08 bd9c5ba6 3d90e121 3c003e9f bcc73a1e 3e3d3b39 3db6048c be3500de 3d2c725a 3dcccddd bdfaa104 bd0d5150 bd84f434 3cc680a7 3e849784 3cbee52e be8a3d0a be449bd8 bdc9ffcf be7b136d 3e37417c bd2347ae 3d85905b 3eaeacfd 3e43dec9 be2f07cb 3dd2bdf8 bd8ad7ed be6e33cb 3eeb2a41 bdabc35e 3d02d65b 3e99f23e bdcb8259 bf112282 be249831 bf0e05e3 bf1a3a2a 3e26f84b bd87c769 3cf08cf3 3e8dc51d bda14ad0 bef59a12 be24c996 becf83a7 bea9daa7 3ee06675 bd9a43a6 bdf24de6 3e0a286a bdd9b410 bebbeb9c 3cbae66d be030a5a be569ee0 3ead56b7 3d0504d1 bdea5d2c 3e5ebc65 3dca098b be27adfd 3ea4959f 3e733ac3 bd751ce8 3dee437a 3e0f70d3 3d058fe7 3e062f3c bd463059 be3ecef8 3de475f6 3e6d089d be4294b6 3a2dff1d 3d533c3c bd59e778 3d37ae94 3d930a46 bdaa23a8 bd1df870 3e0c210e 3d300583 3d11b04c 3c157b7f bd2dfb88 3c4d49c2 bc095355 bd93c490 bd9d0e7b 3d854dbd b9dc8d69 3d158e43 bd5f39a0 bb84822d 3d3f17f3 3ce8c39b be56a4e6 be07d0ea 3d6f1d36 bd9dac17 3d372f71 bd2166bf 3d96f502 3dfb1b5d 3d5a956f bd117bf9 3e4f97f8 be0c56eb 3c16b250 3dabc81b bd306dd9 3da8c765 3e0ae1b8 bd032027 be82c677 3d21c392 be5ac6da be11d0de bd719ada bc0e1873 3da53294 3dcb8f1a bc70413b be18e57f 3e117004 bdaa7e80 bd16dfa1 3e917772 be008528 bd9ac7b7 3dd4e39b bd1fbeba be049158 3e2db7bc bd1d7634 3d31c612 3e08d568 3c9f2da8 bd9ba339 3d9df225 3c8ebc84 bdf1238d 3e6e7624 3e16b98a bcfc9c1f bc620044 3e0ec247 bd9fe24f 3c2a6ca0 bd86e4eb be1a2780 3d0bacf5 3da4a8c6 bdc38886 bdc8c3b7 3b02afcf bdc087a6 bcfa9e56 bd7861af bdada2b2 bd300835 3dc5f95c bd106978 3cc02f7e bce734b7 3d0e4ba7 3c83afde bb5dee15 3ce8ad5f bc853fc6 bcfe634c bd3b4327 bd5de5dc baa128cf 3c2b1e3b bc4608d4 3c11ab2b 3bab47c1 bc23f375 3d93ab0b 3cf51baa 3c0b0dcd bd9172dd 3d9e4729 3dc6b881 3d489044 bbad7031 3e006c54 3d6dea88 3c228d57 bd9f92bc bd936b60 3d671b68 3d87a00a bb7e4251 bd895a75 3cd319cc bda9da13 bd1375f5 bdcb766e bd748e0a 3ba9d788 3d3f5af6 3d84593c bd7b7565 3db99522 3ddcbaf9 3dddd6f0 bb8fd5f2 3b7fe2fd bd0c501e bc870dee 3d294f9d 3d07757c 3db93a22 3decfeac 3d52b645 bca87e7f bc5bc136 bdc8e8a5 bda604b2 be180fc3 bd002f0b 3cda2d72 3cf92cf0 bc5ca59b bda5ded4 3e323a13 3d62fc14 bda5d074 bd7c21c4 bd97b1a6 3cbbf1d6 3da1bac4 3c89b6bc bdec713c bd30a1a3 3bf78f46 3ccea8ce bc03e33c 3ca78c06 3cc8b318 3d303d21 3c1f6879 bd1145b1 3d6519f9 bd832bef 3d0d86da ba9e97c7 bd2fbd66 3ba9f624 3d9dbfd9 bd3ab03b 3be4b177 bd8d3b5f 3cd02766 bc9efa50 bc7b79ed bc6b3f12 3d7155dd bd57ec86 bc443f39 bd6a8e5d 3c6e0e41 bd96d9ee 3d6543bc 3d20505b 3d46ba86 3c1c208d 3ccea4b0 bd830cff bd8b50d8 3d6587fc bcf92238 bd16f268 3d45529d bd37eef2 bce3a04a 3d74daab 3d752140 3c3aaf5a bc3c8676 bc11df24 bd4e1972 bcf4b2db bd581035 3d4881ad badc4ff1 3a6147d7 3c203186 3d2bda8b bd15f5d2 3ccc048d bcdf290a 3d340e20 bd46a2d4 3d2a4e08 3d0a375e 3d01c6bc bd6a8103 3d4b1764 3da5d99f 3d89ccaf 3cc53dff bd28054b bc1c3b5f bd043baa 3c8eabac bd7e776a 3cff9d5c 3d3ae119 bd08633c bce23784 bd27721d bd2ade6a bd46019e 3beaaca9 bc71bfb4 bda9cb56 bc3a0877 bc9e710b 3c720f5e bc9ecd17 bd823d21 3cfe6995 bbaca46c 3cb90912 bd0f6a0b 3cfc246f bbf446f4 3db15b9d bd08c3dc 3d230c14 bd6b097a bc0faff0 3cf18879 3d71113f bc712493 3dc4f6eb 3d8aea37 bbe09c7e 3d9f1e81 3d30d161 3d3e8382 3c821326 3dac59a1 3d526809 3e10172b 3e068242 3ce636a7 3db43f16 b965e814 bb3a1439 3d81bb0e bbeff473 3e239cca 3e161d09 3de7a03d 3d6c5de6 3dba522e bc2335c9 3d808c11 bc69ba2c 3d21642f 3e12f9e1 3df21331 3e20e0a6 3cab4943 3da3811b bab333e3 bd2ede98 bd0ed994 3b553fa8 3d4668f9 3e06ad18 3d5f90cc bb9b009f 3d755417 3d11b992 3ca7f066 bdadbd0f 3d4dac89 3d2b7003 3cfb1e5a 3b0fcf9e 3bdea632 3d8f95a2 3c7d7e10 bc2d648d 3ab682e7 3c125611 bd2fb493 bc6d3698 3d6936a9 bb42be3c 3d1076fa bdac4a15 3c00fb2d bd2efe81 3b827870 bd083197 bd860cbb bd962b5a 3d32761d bc43786d bd71abce 3cae9359 3c1323d4 3c53e25f 3bc2937b bc92fe3d 3d83d347 bcd46be7 bd210747 3cde09e5 bcae6ef4 3d2e9724 bd982a84 bd82fd6e 3d0d8f81 3ca240b4 bd81bf1f 3d28d0b6 bccc4c76 bd8b5e6e bcf53690 3cd634b9 bd8dad7f 3cf15678 3c45bd7f bd1ff952 3ce4e1db 3c11fece 3cedc07d 3d0b11ed bd1d5132 3c7691aa bcd73d8e 3c85c1ac bc6b1fee 3cd23bea 3cd0806a 3cf8b426 bd4737dd 3cee8edc bd733096 bc9a9c48 3d2d03ad 3d94c75d 3c0612e2 3c19fba3 bd44df31 3d3a0481 bd900056 bd7c96d3 3d37f5e7 3ba9baa0 3cacaf28 3d362ae7 3ada2eb0 3caacf96 3bd41ada 3d13ead0 3cd209ea bca5d572 bc892599 3d168736 bb7e2835 bca82a33 bd91295a bd857f4c bb519f43 bce0d75e bc1545ee 3d32aa58 bc04378b 3cde408b 3d140f6f bd0e4985 bda4ce99 bd054a0c 3c96ed44 bd6c6d35 bbe79d48 be14b2ce 3d4e61f5 3ca320f1 3dbf21d4 3dfdd789 3cd5c747 3cb78e39 3cc50c80 bd3a5827 bde8bf01 3c0a252e 3c53623a bd94a6ea 3dfa3dc4 bc71c72c 3c2379f1 3d2b626c 3d3de2f3 3d11d048 bd6d8526 bbde42bd bdb2fa98 3c90ceb6 bcc935e3 bd0c98f5 3d866cde 3d3732b6 3cb017f8 3d825e9e bcc3a9d9 3c8a1a6d bcb2e5b2 3d1d431e 3b5f6281 3bbc8ea6 3c35e1a7 3d936be8 3c671ed6 3d2f2d0d bda3032c bc2cd074 bd8466cd 3d0ae0b2 bccaf332 bced96a2 bbf7abb5 bd102a5c 3d5867e6 bdbf02fe bd4748a5 bd5d3400 3c787880 3cff7d34 bca51af6 bdc49d4e 3d318a91 3a86c079 bcabfa0e bb347f44 3c9edf9e bc09cbc3 bd2c2131 bb6c4279 bdfaa4b8 bbb1315a bd6406f7 bcf9ceca bc7b6232 3cc13839 3d40cc33 3da5df6e 3dec496c 3da3aa43 3ddc5dfd 3c445220 bc5ce233 bdd1c3e1 bdda4929 bdaaa989 3cf632a7 bd4a6261 bda45900 3cf03231 3dd12deb bdbda3d8 3ce66e93 3d09cb7b 3b27d212 3b9214f2 3b7ad7ad 3c110ca6 bae1bc1e bb84446a 3a6b65be 3dc77143 3cafcdf9 3d2ec900 3d8e14bc 3db1fa5f 3ddd75d0 3da35ebe 3dd62adb bd30f55d 3d45f0bb baa82071 3c7aa58f bd4cf5b9 bcc21307 3c95d314 3bb4d2f1 3d54c243 bd9de120 3c92cce6 bda77f22 bdbbc470 bd9d1aec bdbc2300 bcd14fc5 3b251270 3d03b42c bdacfec2 bc1b9bb5 bd294c7f bd6ccf9c 3bc590b4 bdaeeacf 3d8ba87e 3d2433b2 3d078d8b bcb3288c bc320c17 bd03f86a bd752e2a bd60ab8c bca8fb6c bd82bedd bcf582a2 3d4cc52d 3cde5196 3de6f5a0 3da2a290 bc5b249d bb4b77ea bda0afa0 bd99edec 3c6d5183 bcef8d38 bd308f2a 3d3ff8eb 3d936d77 bd016326 3dee33b3 3d5da1fe 3d911bcd 3db55655 3db96c3c bd29e246 bdbc486b bd18445b be189289 bd7a6ed8 bcd653ff bd618c41 bc3eb91d 3ca80ae7 bcfb963f 3d9ebc81 bcb649c4 bc85be71 3cdb116a 3d287355 bc6a48b7 bc94edb0 3da58a72 bdba98dd 3dbf9602 3c843185 bc3124cb bd8577dd 3b871f2a 3d14e80b 3cf1012a bc9118c9 bdbd9dff bda1d281 bc16b378 3cf3afd7 bb9a5fdc 3ddfcef7 3d27d396 3d243907 3a69c845 bd1fcd5a 3aca0efe bca03aeb bc0bfd85 3d45a660 3d0ab76e 3d931fef bc9d8f33 3be51f1b be0c11ca bd63fd23 3c1078e9 3c843266 3d7cc5e0 3dec8585 3e2930ec 3e061bf9 3db7f74c bd9cc0bb bdb70cb2 3cfba8e3 3c23a49f 3de05d0e 3ce2db1d 3d5b9e3d 3d7b025c 3d624fb4 bdaea1e8 3d860a85 3d1c8927 3cd646de 3cfc58e6 3cabc7c1 3d809eca 3c1505f2 3c7520d9 bd4e1086 3c515037 bd77e5d1 bdee0807 bd7a8325 bd5109fe bce094b3 bcb358a4 bce70b8e bdc742e1 be058675 bdc62d6f 3d2ac171 3c511941 3cdfd53e bd8903be bdeef8e7 3e0dac5d 3decee9f bd843654 bc91f021 3dbf5400 3e0c528b 3ce90a35 bc9bf890 be12cc7c 3c7eed93 bba28f74 bbbfb5b5 bd0fe34a 3e2fc214 3df12639 3d8f50df bdaddce4 bde04f22 3d12506f 3ba296a3 3d98be8d 3d59457f 3d6061f3 3c84d26a 3d760838 be09f086 be0ff3cb 3d294f5b bd961dd9 3deba99b bbbfd80f bd195c99 bdf3678c bdf3cf5d be2179ae 3b057c41 3e4317bb 3cc8c833 3d08a9ba be2dc2d6 bdf08090 be8c1092 bde05590 bc999544 3e3227a2 3e838204 3e3223c6 3de361b6 bd9fda7d be3747ee be5921b4 bd93140e 3d04ac3b 3e274d50 3e7f1227 3d46c7f2 3d981179 3d125e31 bc15c454 bd3bb057 3d0cadce bbe44cc0 bc8148b7 3e1f33ff bdede151 bc847f69 3c5ae961 3e041c53 3dce87b9 3cde7b65 bda0aad4 be0c4923 bbbb1858 bdc3b477 bd5ef4d0 bbde5347 3b122af6 b998acaa bd877e80 bc2dc94e bce5e4f7 3da8d937 3dec5823 bb09ce20 bd9806f3 3d75f5c4 3de4d76c 3cd36e57 bd54ba0a be20072c 3d285d04 3d91552c 3cc44a9c 3ca88d76 3deda5ee 3e15ec80 bb1839dc bdb82ef4 be17e497 3d2c4029 bd7a0d75 3d2c6a01 3ced0f83 3dcfa331 3d903ba8 bd48e2c3 bdf88a18 be158035 3c358004 bc7d6fc0 3d5eaf5d 3d30aea2 3d981545 bdce7614 bd195d5a bdb71a59 bcd41ef8 3d99cbe7 3d1fb25f 3d7bbfa8 be1ac19a be78e52a be698038 bd858b94 3d3cc03f 3db4d4e2 3ea8d137 3df728da 3b039d4d bcfee9f9 be63c062 be2d2a32 bdc41b54 bcfc1361 3e4c4066 3e4b3eec 3da977cd 3d8c25f7 bd28a92f be035ee7 bdc2ddeb 3d360d75 bcba250d 3dbb0c4b 3e04426b bdc3e716 3d5ce6b3 3db872ce 3d467046 3db10402 3d8ea692 bd89d707 bdab2639 bc4fe839 bdcf41ff bd6389df bcc5df86 3d029a77 3a0b575e bc865c8a bd27d3ff bd73774d 3d08bb4c 3e0a0f12 bd9d8b41 3b948f45 3dc37bae 3c7a8ef7 3c69fddc bd904c02 bdaccb2b 3d036aad 3d0b3650 bdfa31af 3bfb6752 3e248fa1 3dbbe68e 3d1347e3 bcac0fa7 bdd6ac8d bc944b27 bd10a8e9 3c53b762 bc14dd63 3dd43000 3d9f4206 3d90de41 bdbf6ba0 bdfe8800 3cbbb27f bd4ed8cf bcd7f14f 3d6c03d1 3d3be2ed 3c78b8a5 3d1f3c86 bcfe2052 bdaacee3 3cbab70c bc8f3348 bbf3ade5 bdd94df6 bde1d4a1 be22330c 3c786026 3dbe34ea 3dc35221 3e4f35ce 3d6f9253 3cca23ba 3d37fd8c be0501e4 be815dc7 3cd0f4ed 3d678841 3dd1be97 3dafacb0 3cab092b 3d44dd54 3d059634 bdc70fb1 bd876316 3cd79d72 bb20676d bb9a5146 3dce24ec bd96ab66 3d69a90b 3de7bdcc bce67395 3d7ad3d8 3d8ff22d bd45ffbc be14bba3 3c0c24c3 bdd3e1a4 3c989770 3c7f3bd6 bc4de58f 3d589681 bd1daf23 3d59f5c7 3d856470 bbb2e25a bd4cbfd6 bdce8d7c bd91cc3d 3a14272a bd3d6b53 bcb44a82 3c10b190 bc364534 bb4ef980 bd108c27 bd2deefd bdc7a964 3cd6cf4c 3e06d72e 3da205c8 3d479fc9 bd5035e6 bc0455cd 3c5b0bdf bcd703f3 3badd03b 3c22b979 3d827ce6 3c865149 bdaed35f bd3e7d45 bd5882c0 3d82563d 3cc18718 b9924c6e 3cece5fb bd62a10d bdb784a8 bd4d2644 bb058bc9 3c4d287a 3da28e55 3b662528 bdeec2d3 bd8b0b22 bd5a886e bd106ebf bd9642bc 3d765bdf 3d040d54 3c44c3b0 3daa830f 3b352bf7 bc2f1f99 3cee4a8b 3d8f8fbb 3c51d888 3e016084 3db2112d 3dc91d61 bd2150ad 3cad639f bc23d480 bd6da215 bbb943b4 3d43935a 3e082fa5 3d3ba5fc bd812be6 bda18fe0 3d84c78d 3d2a9cfd 3cdc3163 3d358ad2 3d469d8d 3d14f53c bda38042 be1a6287 3e243035 bcd73c3b bdd5bb84 bcec5ca1 bd9841bc bd9ba883 3db96221 3c1e28e7 3d02d655 bd29defb bd910010 bc340e35 bd3a15a5 3d02e6a9 3d62a7cf bcc62953 bc4eac33 3d103b00 bdcb2073 3d618474 3cce57a3 3da1d95a 3e16c873 bc3a301f bd8eefce bd3e0614 3d14be39 bd109839 bc6afbc7 3d82af11 3e1e86de 3dfe0990 bdc37b41 bdda9cc7 bd810326 3d1d5e13 3d0e68c8 3d616d7a 3e04c1ce 3e1084ce 3e17c27a 3d6a5c45 bd5ac039 b9f6e557 3c014d0d bc833212 bd65d9af bd89b1e0 3c5a786c bd1cd837 be2d146d be3b1a0f bd7826ee bccf59aa 3cdb066c 3d059bad bd6dbb05 bc5439d2 bc4610c8 bdcbcf3c bc887d5c 3c95430f 3db0e34a bc3acb1d 3b227454 be0b96f7 bca2a104 bb8508d6 be14ce7b bd8fbab9 bbe334c7 bc80c9b2 3d95cc77 3d8236dc bcb3d6e6 bc824f24 3d0c4668 bc75494d 3dd89b08 3dcf1c1e bc8fc056 ba4c8e25 bd5f68fa bd81d700 bd6c5c5e bd74e0aa bd3e264c 3d60963d 3deda564 3da35cb9 bd4c5748 bd2dbcaa 3d1fcb04 3cea66d8 3d3a0173 bc79dcd9 3d4c884f 3d97d0c2 3c022384 bda27466 bceb3eac 3dc8fda4 3e567bd4 3e19a4ff bd77f98c be049a99 bd4afbf9 bcf0d05c bc3b5b1f 3d2a09e5 3de6b637 3def0ea7 3df25084 bdd31e68 be166d27 bdb1d320 bd2c549a 3d8f6137 3db6767d 3e64fa06 3e387ce6 3e063955 bc824b72 be10e7dc bd99781b bdd04725 3cb72db1 3c8daebf bdaf52d9 bd86122a bcb118c3 be29c2cb bdcb0b7c bd0fef1e bd8da6e6 3d795e9d 3cd80142 bd21991f bca71d2f bd9dbebd be0d43de 3c84dd5c bc02a1b8 3db3e3d2 3c84e414 3cbd220d bd624d54 bd9257fd bc18814a bcd3521c 3ba6788e 3d427e14 3ca321d2 3d054c8c 3c908343 bd8746fa 3d8a3b15 bd4f03bd bd484368 3be4d9d7 3bee4914 bd6bc323 3db3c1d9 bcdd65d5 3c330b1f bc339b14 3dbc80fb bc558df7 bd7ad4f3 3bfed56a bd40d93b bc583932 bd02687f bd98f6c4 bd1999b2 3d32a9b0 3cd78ba7 bd58c178 3c1365c2 3c17b01d 3cce338f bc19b939 bde15cf1 bbd4a248 3dbf98bd 3a4f6acc bd848bd2 3d74f982 3d5995f4 3d0655c7 3d11a2d5 bd860ca5 3d8fbdf6 3e1506c8 bd1a27ab 3b5aa9ff 3cc47184 bc5f654e bdcbff1c bb98c957 bd3f779c bd055510 3ca861a1 bd190bfe 3b8c5d5f 3cafdd75 bd6d187e bd8e4402 3b7d1ff0 bdcc87e9 3c6e453c 3e039aa8 3c29d18f bbf31e98 3d1d308f bdd511b4 3c958bf3 bd3234ce bd258840 bcebef01 3dadc963 3afd6e9d bd0d8f1b 3cc40aef bcfa5681 3d3ccc03 3ce0df00 bc8d44c7 bde84da7 3d1838cb 3cc23a59 3cbcd8f4 3d7b1610 3e1c638c 3debb1f5 3d683633 bca23449 bcd6bf4c ba4b6d3e bde1541b bd6c55ac bd0de82c 3cfb4e6a 3cfded34 bd4099b9 bdc6c9fe bd1e2d99 3ccd124e bd445d29 bdf23ebd 3c418991 3dda95ce bcd1041c 3c4ad5a8 bd55f9ad 3d8666df 3dcbc449 3d1cefe3 be132174 3aab051e bc954268 bdca2d57 3db04582 3bd070f9 3d8ec185 3e05cd53 bb6fe11d bd9cf158 3d0182b3 bccc3f3c ba808922 3d4d61ac 3d917d4a 3e3387aa 3e172d24 3e00ebd7 bd67fea4 3bd37972 3baf353c bd9b6306 3b0dc835 bd2d8ff9 3c9300d2 3cf41235 3a8fc662 be12d79a bdd4f8b3 bdfbca4c bda0f5d9 3db3dbb9 bd516374 bc353456 3e060d6d 3c65b87c 3c893cc5 3b6c400e bd553625 bdcb83ac 3cc10d29 bddaaa54 3cb2a010 3e25b3ef 3c1282d6 3d2b35e7 3d696072 3cae5dae 3bff3323 3d1fdc1b bd41b70f bdaa80fc 3b28aa0a 3c03fb9a 3cd42580 3ddf739e 3e17faf8 bd25018a 3dda7119 bd1dad7a bda6fdce 3d7eca2b bd80372d be17100c bd36bb66 bdb5307f 3d48fdda bd34e16e bd8e5a8c bd516698 bd5ce83d bd32795e be0fc3bc bc9f9136 bd03b2f5 bd9e2f7b be00412c 3bbab587 3d05f1b9 3d8b6002 bc05a93d bd3df648 3d1dc003 bdb00c0b 3c89c948 3d2cdfd1 3d840b4a 3dba88fd 3e21d005 3dcdce12 3d817ddd 3e09f8f7 3d54c0d0 bd52787f 3d4dc75b 3e38afee 3e3c3882 3d0e7bb3 3ce715d3 3d215e74 3dfb9ba4 3cb13002 bdb4d3bf 3d2a8ab2 3a3a48e9 bd900357 be7a60b5 be1ecd89 bdb4953c bd08a598 bd598d66 bd971a53 3dce049e 3d199720 3ddcad46 bd63b00f bc7bc01d bc29e23b 3e05ab60 3c9ff5fa bd006b19 3d8c2897 bd420b9e bd078a25 3d0c0ccb 3bd926be 3da699ec 3e69ee4b 3d90fc97 bd82b6b1 bd4d892d bd650f1d be12236d bdce39b7 bdc0fc3c bd0cd96b 3e33a9cc bbda4055 bd689a41 3d1a211d bc97d153 bc05d90d 3d9f8cb7 bca9d391 bc8980df bcae5b4d be45a945 3d8f4122 3d63200a 3d1dec56 3d3507d4 3d8571bb 3da6c4f8 bed2078f 3d270ecb beaf4eb6 3ceac43b be1e2d02 bdc06e9f bdfa1335 3db18100 3b15db39 3c8023a0 3e959588 3e931e20 3c356fa9 bd8b90bb bd966f7d 3d38359f 3e378cef 3d3f3f4e 3e27f843 3d766c9b be542c48 bd88ba6b be144ddc bda727f1 3d201f2f 3e3a66d9 bca73190 3d9cac6d bd9ed5df be356d89 3da46e62 bdf6191e 3cee8283 3e1f51e3 3e6921f5 3c2e7733 bf248488 3e72b02e 3dad4f86 bcce6c2c be1f51bd bd4c9dbc 3ca5eb08 3e120677 bd6da57f bf686eee 3f1a1655 3b7fd471 3d838632 bde9895f bcdf517c 3d5f0064 3db2841b 3c7cecb0 bf3c1c70 3ea6d0c9 be653ab6 3dd64e9d bc85805a bd842699 bcd46ef5 3da84d80 bd8312fb be0c2b86 3ea6cba0 be1b9aad bcf72568 bcf3d90a bd7b0411 bd875a22 3d490730 3d3cfb54 3c9c0d21 3e8110d0 be495430 3d4c80c8 bd0806ff 3d5ea7fd 3dee4e3e 3e07c69a bd89e457 beba4743 3dd708eb be455e39 bccfcc36 bdebf723 bdc11fa7 bcfe06e6 3d11c422 bde4e58c be30d9cf bc522e4d 3f1b1477 bd4f505a bdcdf138 bda172d0 3dc3f90f 3e49b728 bdf449a2 be5b9b3c bf2c95fa bec78e54 bcc44a32 bde5f346 bd9e9ee2 3b557003 3e39ec5c be27be10 3d2fd1ff bd881c49 be18cd4e 3d49f110 bdf7f788 3d377657 3ddda887 3ea95517 be0d9106 bf8e5c0f 3d574332 3d8df94f 3d81d4e0 bd63a3f3 bd398565 3dcf2f2b 3dd5cb61 be43579a bee0fad6 3f167b9e 3e1013cb 3d791303 bda380bc bc24badb ba127346 3d7cf68f bd9c7ef6 be22d097 3ea77f04 bd2b8f56 3e08f261 bd87d303 bad82b4f bd400e61 3c408dd3 bce0c5d2 3e9be344 3e8ce672 be25d06b bcecad4d 3b780eb2 3abc2954 3c0f9b2e 3d1c5e12 bd2876aa be083858 bd1a9a1d be061ceb 3de1d54e 3c8c9624 bd146d32 3cff397b 3e0b294e bcb2e66c bda74cff bde373f3 3e2fe188 3b1639b7 be0b8c2d bdc6a3c0 bdf37e10 bd911f42 bd1a7bac 3e173486 bf0041ba 3ecbc322 3c56071d bddc3092 bd151524 bbc47056 3d60c69a be2fc488 3e804bdd bf87fb10 bed590cd 3d742b01 bd9ecb29 bd743675 3db615e6 3e3bde51 bd925388 3ec840a1 bdd55c68 3d0c7955 3e150e51 bdcf8f6f 3cce1d6a 3e39590d 3e680a47 bd535a9c bec28f6c 3dfd416f 3e718410 3cc095df bdf50420 bcdda688 3dc946bc 3e6067d5 be220430 beb213cd 3e0325c3 bebf866a 3df8b68d bdc5e732 bd684812 3d873a2d 3d74eba6 bcea8505 be4078d6 3e5291e4 be86cc84 3dd11dc3 bcdac220 bd75f6dc bc9dbbfe 3d5981a6 3d8fdfcc 3d335cb1 3e7b3f83 bdf331ce bd2c8aea bda48f80 bc949131 bd9b4709 3d03a559 3d89cdca be93aedc bc82d7a2 3d39b7bd be07158b bb68e22e 3d9db1f3 3b7f6980 bd16f17f bd6e9de0 3d6b6856 bc2de44a 3c72c610 bcd1ad25 3d2a5428 ba2c07b1 3d723cb8 bca91f9c bdcd316f 3d908227 bdd3ad5b 3dc03767 bd5a37e6 3b2871e2 bc17901c 3da5bbaf 3d9e8252 bd593beb 3d985382 bb826e89 3cf82471 bd9d13e0 bbfb6725 3c80505b 3d2337c7 3d8d303a 3d996a91 3d671c0c bd2a02b6 bcfdb1d5 bc982e03 bc991431 bb7fe428 3d05436e 3c31a7a1 bc0012fe 3c811ffa bdfd15ec bb07f01a 3c0f8e07 3cf9e46f bd622dda 3cac8b7e bc6f2b22 bd0a3f93 bc71c814 bd564a31 3d05b66d 3d12d07f 3d3b3f92 3d11de79 bdaca260 3af2e262 bda82bc5 bd15d191 3d3a7fc1 3b8b96e4 3a9ba381 3dd5442c bc158586 3c108251 bd5c0b20 bdccbe2f 3d184ae9 3c886a56 3cb83114 bd8ce0df 3d1ce610 3c5b25be bd6c7993 bc3a2c75 3c82a9d4 3de480a5 bc8b21c0 bc412307 3d0805a9 3d89b6e7 3d2c37bb 3c9ff0a5 bc39a527 be29c4c4 3cc7488f bcd6498c 3dbc47eb 3bc98784 bbbdb4ac 3d0007a7 3d4a1db8 3d27d2f9 bddbb48e 3be4dfa5 bd429209 3d95c902 be619947 be440b9d bdd8b279 3d7c0572 3ddc16bf bd2b0960 3d4e9d76 bca19469 bd5daeba bde9d6d7 bd82d794 bd4c0a40 3e105eb5 3e244af2 3d293c7c 3d9c2ba6 3d2501e3 bd6cc7d7 be3ea47a be090231 bdcc1355 3ccaf0af 3e8103c8 3da810ff 3caf7632 bc98bbc0 bd1a45c0 bd46d1f8 bd4d6ca4 bd3d61cb 3decc011 3d9ab98a bc029b73 3dbdaa93 3ca8dfe4 bd835f74 3d1cf8f1 3d641c0c bcbfbdf8 3d90b8de bbdb3ca3 bc291619 baf49a5f 3bae6f28 bcdb1fef bc2d24b3 3dd73773 3d88af62 3d67a98a bd30b482 bd8b7982 bb260358 bcd99b88 3c58a9df bd4e8702 bd213404 3b2e6cee 3d37a130 bd0b2ad4 bd9ffc69 3d36505c 3cdbaf8b 3c1d0f5d 3caf82c8 3d8a1882 3c8fb097 3cfb8e4b bd75c170 be4389b7 bc4ba14d 3c547143 3db08a46 bdd2d321 3da62870 bb9a94b0 3e348c17 bcf19d13 bd25dc56 3b95f485 bdcf9fb2 3d5534d0 be833b2d bdc5853e bdb365f8 3e34063d 3da30d13 3c168af4 3dc8ac5a bd6086eb 3ce1980b be42f359 be11bd3e be106c7a 3e5b29ca 3e09fda3 3d71c15e 3db36b90 bd71dbf6 bd66c09e bdd18650 bdb3131f bdb82236 3e54f8f4 3e8b4018 3e3c047a 3cafbd62 bd3e842e bd10fc98 bddeb1c9 bdaf5552 bd94ef49 3de6e3c3 3df24102 3cb70062 bd6a39b1 bb37c502 bd09e23b 3d0df191 bd7c73d8 bd222920 3d898221 3dd71311 bdfac5f2 bd9ec1ae 3c82b206 3cde96e8 3a596d38 3c8d9f87 bd3d71c1 3d727394 bc7db877 bdd194fb bcd0b828 3d144104 bc67df11 bd2fc57f 3d272033 bd7dfa21 3da6269d 3bae1631 bdb03325 3dc096c9 babb76d9 3d817e31 bd0a4d43 3d5c3fa0 3c262453 3d48f35a 3c8259ab bca20d58 3cc09b53 3d0192fb bdbb6e40 3c6f0c7e 3d822dc7 bcb29a1a bdec826a bac6797f bd335cd6 3d820842 3ddeacc4 bd30bcb7 3d8ecb5c bc9ffb88 3bb1d77a bdb53723 be03cecd bd947215 3da6c5c5 3e115f2b bd02de59 be3819c0 bd53f361 be01a47c be25d339 bd2522e4 bddde613 bdc9bc51 3cc5fc30 bd82f2c3 bd3fdc2e bb89aa01 3df130b0 3debc3a7 3e915bba 3e1f4ac7 3e02e875 3d210413 bd93557b 3c970103 bd950c1a bb9c9bb4 3dc1cdae 3e61b734 3dab3ee7 3d9515ed 3cf9b0f2 bdbf65ec bd1b9adf bdaf425d bdaa20e7 bcbce2da 3d1c86ad bd673e06 bd897f9b 3c9d62fe bdbf06c9 3d05a7eb bd9834bc bd68c0d5 3cf8afca 3e0760a8 3d968e1e bc30d964 3c9fd7af bd8eb9df 3da47861 bcde2746 bd17a7e6 bd18fc5c bbe1550a be013fe3 bd8c8753 3d8fecc3 bd2ceaed bd724b30 3c444aec 3d052032 3d9e025e bcc284b9 bc656a38 bd883497 3d93170e 3d4d2247 3d7512f4 3e120181 bcdc53a8 bd81aebf bd2bab0e bd867f52 be00b005 3db17013 bd6072e1 3d7c724d 3d91944d 3ada1fc5 bd1c5163 bda8f041 bc54f39e bc2b1e3d 3e05f6bc bda5aab1 bbfecfb2 bd12d570 bd9ccdc3 be2330d0 bd689fa0 3dc663de 3c3add8b bba0b56c bda983c6 bc2beb7c 3d98f3f5 bce8b701 3d0bca60 3e3d3e8b 3e45752a 3e3856bb 3d116c53 3ca25b96 bc3eb645 bd9b27bd bdd14f53 be2ad0e3 bc75de7d 3b980bf3 3cd7f08c 3ced57f7 bd96893c 3d6b8f94 bd665d7e be301de0 bd9fb463 3d1163a9 3c79c882 3cbc7c96 bab81264 bd84fe31 3c57671a 3da81461 bd465cf7 bd0d3e66 3d96d2d2 3cb3ec61 3b22d002 3b746951 3cb14bd7 bcd49711 3dbb7874 3c953a0a 3dd1b4e1 3d7785c8 bc53abad be258d48 bcb67a05 3d1046a9 bdd04b85 bd840729 bceb46f8 3e09842d 3d483364 3c82b339 bd8d5ded 3d53804f bdd64743 3d52a9ac 3d5af9db bd0f26dc 3d4ad4b5 bdcb2dd2 bda2457a bc880a66 3de09393 bd16fe0c 3d55df04 bb038730 3d24f86b 3c6420ee be0b43d4 bd841685 3d40db45 3d69620a 3d718dc0 bc9a92a6 bce82d3c bddd1cc1 bc95ddc5 bde296c2 bca15fba 3db0a49d 3c08ea5e bda56c72 bc77674e bc0019c0 bcd4f9c8 3dd4f360 3da1ad76 3d3a46c3 3d10f2e1 3d134510 bd37e524 3d73f9d8 bd85aff3 bd3d8a10 3d585953 3d9e7394 3dbc7e5d 3d72c617 3c34b4bd bd34e1de bc252d18 bd8ea40c bdd0860f 3d8f94ec 3de477cc 3d9b1d86 bd0f0de8 3cff36c6 bd82dc06 bb37436a 3d660916 bcf587b5 3d5996b3 3d565c4c 3d8ac613 3cadc5eb bb677d39 bddf513c 3b40d382 3cd5c01b bd79e1aa bca71a9e bcee4e23 bd5acda2 bdb0ac96 3c8f9f87 bbd0ab17 be02b493 3e48bc45 3d8a995a bd3a6e08 bd7dd147 be07a057 be1afc98 3d82c497 3e062f68 bdbf2029 3dc7c152 3cdbf37b 3d1547aa 3e0007d5 bd4a00ac bd04eb9e 3ccc27ed bc0ee0bd bd70931d 3ce735bd bcf4c9aa bb074da7 3db441ef 3bed5889 bd5c3d29 3bc6ce14 be14e856 bc3c971b bd48fcd3 bc7505fd 3c817a25 3d113d0b 3d8f2da4 bcf8ab95 3bac7d87 bd1ff5f1 3dd9bb2d bd508dcc 3daf8507 3dc7a08d 3e246c49 3e1efbd1 3df61b5a 3cb262cf bd709fb2 bd721da7 be2de0f0 bd6e2dbd bde11472 bd9d2ce8 bb3db2f8 3cd9f056 bd571f3d bd554eea bd836b5a bca05157 3c0159a5 3c4834aa bd1d6c20 3c235974 bccea949 baadf73c bdfe495d 3ccfcacb 3db595e1 3cc93c15 bcda8002 3d44a38b bbc7318f 3ce37ece 3dbfd2a7 bddc0246 3d74175d bdafb3e8 bd7fe154 bd9a383a 3c838d51 3d2dc27d bd152d97 3e0c34e4 3c2358fc be203828 3c5ca019 3dbf98b3 3d952288 3c499968 bd276142 3cd32838 3e017d0d bc8d031c be25fa02 bb2a387b 3db59ad4 bce8d8bb bc5913d5 bcfccd37 bbe7f794 bce15da4 bcb71424 3ce449ce 3d92e3db 3e00882a 3c4bc958 bd102566 bcfb5c15 bc517e85 3c471e10 3c7b4d57 3b819a6d 3bd9260e 3e4a40a4 3d4e1164 bdc15893 bd029ce2 bd55a489 3d72dca8 3d684e16 3c301fc2 bd4d89ab 3e356cee 3ba53ff3 bd3d11ed bbb6fbca 3db1ec73 bd7ef075 bcd5f1a4 bdeb514b be340c4e bb81a736 3b451b57 3bfcada1 bd23c188 3b09f4ac 3d5fda93 bd9ebe14 bdabc513 be08f9df 3e008a7c 3d83113b 3d20a78e 3d920938 3dbfd62a 3db875d9 bd2b459d bc0740a0 bd485a75 3d76636e bdaa9d08 3cc56a87 3d1d38e8 3cd25c95 bc2386b6 bde7cc01 3d8caca6 bd9dd6b2 bd9ea293 be1a226a bd0ce3c6 3d688608 3d854331 3dcd9464 bde111ec be288356 3e0bc032 3e039019 3c1d0985 3b61bd38 bdd25826 39fcdb4a bccdbc77 3cb75090 bd05d929 3dba158b 3de860c0 bda7faef bccf57b4 bd054e0a 3c779256 bc1a3e19 3cc3f747 3d23f2b8 3c4301f9 3d993ac6 bd150a1b 3ab7dca9 bdae6e1e bc06dda0 bd14b77a bd03655d bcf2f315 bd3b351c 3da5dab1 bd41b45a 3df50e5b 3d6dd85b bc71ce20 3ad83407 bbcae518 bd9b0943 bd8f5c7c 3da71227 bd760fa5 3d48cf74 3dc12368 3d7fb43d bcad5a27 bc41fddb bd533c0e be310e02 3c661908 bd740987 3d309ee5 3d96d3df 3e15c36b bce8b9c7 bd9a83ec bd47845d bc8e8a77 3d434b48 bd4c68c4 3db5eda4 bcbacaa9 3ae386c2 bdba80c9 bdb4d432 bc2d0731 3c463ce9 3d3b7673 bae2d573 3d8e9f17 3d58d30c 3d1e7dbb 3a65ca6f bc22c797 3d8a4077 bc3c2cab bce5728d bdf92db9 bd8522dd bdeba905 bc52bd9e 3e02b29f 3d799875 3cc84ac7 bd33afdd bd37adb7 3d216268 3d29c35e 3d93f738 ba11d136 3bc6b3ab 3cca80b6 bcc49b4b 3d169af6 3c18bb9e bd655ab1 bd705eec 3b4fdb34 ba54d2e9 3d808488 3d044e31 3ce2c26d 3ad453e1 bb8310e1 bcae7766 bb88d653 bd8b6393 3d7d26a8 bd085290 3c235bdc 3d8dd120 3d09e8a6 bd03a084 bc772cfc 3bf1be2d 3d24b519 bc9e2815 bd4f4879 bc97ab8c bc44e70c 3c57a845 3cfa3ea1 3d227ad2 bd03d7bc 3bfe982b 3d01caf0 bd1a718e bce609f7 bd03d326 bbee8681 bd43311b bd2230fe bd20c398 3cf814cb bd0100b4 3d666a1c bcee7db1 bd56a8dd bc9c5e2b baa19641 3ce4a1fe bd2ea3a8 bc69fba8 3cedaf4b bc461b4b bbb39e51 3d973030 bd716458 3d866e3f bcfe450f 3c2fbfb8 bd42e02f bd67f0dd 3c8c57b5 3cfe07dc 3d85b58c bcbce8ef bcc4061e bd106ab8 3d4763c8 bb95c023 3cbead07 bd31bbf9 3c91c158 bc8e6979 3c3a9dca 3d2cd7ab 3cfb4401 3d950f47 3d6731b1 bd765653 3c66bc15 3c41190e bd14a02b bd78ab0f bcbe6680 3d3ca508 3d9ca232 3d087920 3c7ab39e bd76bb18 bc00142f bd11f9d2 3d1b25ba 3d801dcc bc348cd9 3da97f83 bcde9542 3d7446ff bc857fff bcf6e69d 3d17b8de 3d90ee1b bd022ce0 3d842d58 3d03dbe5 bbb3c610 bc0490b4 3d16dcb8 3be4e918 3d8d48b3 3ca59caf 3db2d83e 3dec24e1 3da79c88 3d932dc2 3d3b035b 3bb8976a bcc3ca43 b8902555 3d5c66b4 3c821d3b 3d807423 3d92e41f 3d729b47 3d2581bb 3d0a616f bd0526a2 3da6a4b7 3d75632b bc7dda6a bd0b1171 3cbb963d 3d828cc1 3d09dc3e bd9b0a3d bcb23c47 3cfa20b4 ba84ffdb 3c47a7a2 3ca47e83 3c4a1f31 bbb3134c bd2eebf6 3d1f349a bd40d509 bc0d55e2 bca40b90 bc9ab204 bce27c0c 3b15c8ef 3c14adbe 3c9d1968 3c3ea3c5 bd749c29 b84ad79e 3c2e91f7 3a57441f 3c2d99c5 3d8c0ec6 bba7d851 3d42b222 3ca250d8 bd9d326f bda68913 bc8c863c 3da16496 3dc56e3f bc10d90b 3ce50b24 3d5ced36 bce4bb18 bdad91d5 3d31a46a 3cc78dd3 3c63eae1 3d986216 3de15867 3c8675a5 3d70087f bd7cb66f 3d21d484 3db798b9 3b584294 3d4bc1e6 3d6b5c2e 3e157cff 3ddcc1f2 bc02c0d0 3c86a7e5 3d14c197 3ddb95ca 3d6f6ab3 3d4f1341 3e05bbc4 3e0e754a 3c1031a6 bb224689 3d5f024e 3d37c4ba bc1a74b1 3dc048b6 3d612031 3df9c213 3d5fbbf4 bb37589b 3d8dfef7 3d046035 bd371a61 bd18744c 3d829760 3cae595f bc0d1e7e 3daa4d24 3d952d6d bd671cb4 bac05642 bd2eb280 3ca18845 3c8615aa bc634004 bcb5a191 3da39fb4 bc9a311d bb5888a6 3ce71dc1 3bb615a5 bcc640cb 3d33c682 3d44eae5 bd30b411 3d14adf0 3d5574a0 bc970a59 bc408d5a bdab71c8 3c7deed0 3c879bf4 3d0181fa 3b89377f 3bf4fcfb bdd1b9e8 bd11c798 3d051114 bd81b7d0 bcc4511d 3bd3700b 3c3eb08e bcf09fe9 3c4964d5 3cb757d0 3dc9d453 3cc0b2d8 bcccbb20 bb95c5b2 3d81ca3a bd143d2a bc128a58 bc81fe1c 3c7fe36c 3dccbf1d 3d9f409c bcb0876c bdb0b29b 3d37a88a bd75aaeb bdc69f4c bd23889b bda9b583 3d1b52d3 ba58a8d5 bd92cf2d bc390b1a 3c9bd610 3d91e7ac 3b8a3828 bd5265fc bd2d2c8b 3d0a1ec5 3c3b5d9c bdb9680e bce37063 3dd93b0c 3bd484b9 3da2354e 3c4190a9 3def812e bac5ca64 3d7518ff 3dce3f7f bd0a43de bd425de2 bd926909 3d898d08 bd48c9d5 bc9470d5 bc8aab98 bd39c94e 3d043a65 bd8bb3e2 bd9e765a bcc53b77 3d9d2e62 3d5a4623 3c7b8f64 3ca401c6 bc49075c bd3b0834 3e2b4aee 3bf9941e bd55517d 3af339c0 bc8d96bd 3826b9ee bd35b352 bda8b4d8 3d7abb26 bd9ce9a7 3d9d5915 bcf3d129 3c8edbc4 bcfdcdca bcec54bd 3d5837a4 3cfddf2e bdb22986 bdfe797e 3d3b7302 3a6a928f 3bbed355 bd697545 bd3f8cd0 3e35e7f6 3db996e2 bdc2df25 bdda3e9d 3e080918 3c406702 bc98f93e bd261698 3c20a692 3dcf71ac 3e0ec622 3b761172 be4605e7 3e21c4c3 3d24e5ba bc59941b bde7fb62 be19aade bd5d332f 3cab22c0 bda8b162 bd2bddc4 3e20d201 3e0eb88d 3deb7fb3 bcf3b9b1 bdcae63c bbaa9c36 bd9b288b 3dcfda71 bd19b338 3e356067 3d89d7c3 3db3ccc6 bce30f50 bd855de7 bc85326f 3c90e4f2 3d872335 bdcafc58 bd496483 bc2b102e 3d480bc0 bd14991f bb1e61b4 bb0d110a bd9a7709 3c03f4df bd958ff7 bdcb9897 bdd6547b 3c960d0f 3d2dece8 3ccb0e36 3d588526 3b6ce62e 3d288772 3e2a475f bc89718e bcc4b50f 3db41bd9 bcb5b003 bd85a9e2 bd0810c1 3c68ad1b bd6cbad4 3d3c68eb 3d0ddf35 bca3cfa9 3d82f809 3d03731c bddfa186 bcc03d95 3cb9af86 bdf1cea4 bd9f61a7 3d96831d bd6dd20f bda18faa bdd59b9d 3d108971 3e4135fa 3e4f5091 bbb374f3 bddd935b 3d927191 bd41812c bce6afd6 bdd7779a 3c19e057 3dfe58e6 3dfee8cf bd2781fb be599ab3 3dc0a723 3c41121a bcc48363 bde3d754 be287d8a bdde98b2 bda677aa bcc8433b bdd6d588 3e66a9fd 3dd910ec 3e3f0d36 3dce03e4 bd604236 3d9b2805 bd67d4c7 3c11f16e bd93deb9 3dcae910 3ddb4ca6 3e218bc1 3d4e6e70 bd38c937 bc374320 bc0d4759 3cfad235 bd71abcb bbdd050d 3ceeb7bb 3bc12d44 3cc5a9c7 bd763cc4 bc30d301 bd5ed8ba 3d31cd89 bd00bb86 bdbc5866 bd48900b bca54432 3d7b5f65 3d3a8b3e 3d8f7327 bbdc4603 bb1bc720 3de67e96 3c55ba6e bd3d5a6e bc1c70a8 bd8a8b75 bddb2927 3ce3b9b7 bdc66283 3d1d01ba be0c2371 3cc9079c 3debc98e 3e0df1de be0abe3b 3d1b2342 3da83a01 be1eea63 bd8d60ee bd978439 3d8206be bca1973a 3de7f9f6 be2ae578 3dabe31f 3e13c740 bdd508a6 be10bd41 3e26f76f 3e295f06 3c199508 3e3a642f 3aa46aeb 3e5b77d5 3eb1bfb1 3e55e14a 3db7d0b4 3aec7585 bd4d384d bea83a8b be226ed6 bea61849 bc66cc1e 3e7fe0e2 3db2e9b6 bd182231 bd244786 3c4ffff7 bed0f1b2 bea7ec2d bf04f162 bd8b0027 3e619efd 3e11432e 3d51fb64 3e064fd9 3e47dd3a be4b3b9f be352d96 bebbfba6 bc0f5750 3e108801 3e565d1f 3e08de59 3e117659 3e725261 3d244d60 3dd70775 be7ec08a bd8975ba 3ccaa700 bcaefadc bbc62771 3c16c4b2 3d4feb52 badc2acd 3e2ca3d6 bea937a2 be0f3f22 bdb7d13e be7ccd29 bd8224f2 be936a88 3c912e47 3d9ee210 3e97108c ba6291c1 3e3b5cea 3df44a85 bd47f6a9 3e033c8c 3c9af3b2 3da1d2af 3d7990dc 3cc4b658 be1e7585 bc7cfc75 3c259551 bd30ab71 3d59ab8c 3db10ed9 3d27806b bd17ee19 3d3b1b11 bde3f4df 3d86f9f8 3d5a51d6 bd9ce2c6 bd42cce3 ba587920 bc2b2750 bdd6ad6b 3d655a0b bc376919 3d62bb5f 3e2156a4 3d943d9e bdabc3a1 3d5c14f8 3cc2ee17 bdad463f bc451275 be49e80c 3d8ab280 3ddc4021 bcdc33ff be164db5 3d42c64d ba751f82 bd86f5e5 bd008310 be686205 3c96f769 3e34b676 3e31089c 3c67a660 bcc934f0 3d90bc19 bd75122f bd081e68 be2792d3 bd5a8748 3d8ea672 3d5f1b1b bc329d67 bc4a1769 3d813f10 3c988b92 3dfb8823 bdd2797e bd78497a bb0757a9 bd5dd046 bd8e621c 3d07a007 3d8b9d9e 3c764d93 3e347e3a bdeabc42 be14e513 bd1e5b55 bd86375e 3c26d112 bdbf7cc0 bd8f4c23 bc845146 3e0ea40c bbc0f987 3dd564ab 3d7eebdb bc3e76ee 3dd66df8 3d22ce40 3c3a4fee 3d94586f bd472368 bde4a1fc bd33799b bcb40e28 3be016be 3db37479 bd2bdde7 bb6b3d3d 3d58fb76 3dc8fe8a bdf9fea5 3c5f5881 3ce51347 bd0ce334 3d0c2b3b 3c8c76c0 bdf88eeb bd9b1bed 3dac40af bd3a39e5 3d612bf4 bd0edd07 bd481990 3c478031 3cdd4a17 3cac16a0 3c707e26 3ab1e117 bc2b2b41 3dcf056c 3c836643 bd9c3a27 be200c39 bcc0fa88 3d18646c bdafc416 bcd0d416 bdd7100c 3d6bcf54 3d2960dc 3d929545 bcc20bf5 3ce02097 bb39eaac bb2f9d0a 3dc619d4 bd1c6fb3 3d80bdaf 3d0cd7e8 3d8c2608 bccfabc9 bd598c80 baa3df54 3deb156e 3e2cbcdc bd241d33 bc802335 3c81d9f9 3ca21c5e bd5e5d53 3d8732f1 bbdfa46b 3d78e616 3e016a0c bc8f8e2f bc8c9696 bdc159f0 bd9fbd85 3c3da484 bde98f88 bda7de93 bdb2ded0 3d880f68 3b853b84 bbd6f5e9 bd37440d bd0aabe6 3e2486cf bda5a379 bd6d10c7 3d8aa863 3cfd597e 3ca852d3 3d58ed37 bb4bc85b bb545f6b bcc32e9d 3c00f4c4 bd25d186 3cf5073b bbd418de 3c03bcd2 bc0d974e 3d6b31a5 3c77582b bd0130f8 3cf2df88 3e0893bc 3d0a5368 3d896c0f bc9b56c6 bd0e2c7f 3d84c38c bc491331 3d820314 bd12933b 3c9136eb 3cf852a7 bb0d24e8 bdbee2cb bd4b7d17 bdb819d6 bc3f2e24 bb7b3b83 3be0608d 3c330ae3 bc07437c 3d77419a bda676eb bd9cc95f 3d1163b3 bd2d8d5e 3d8d1ad0 3d8127c7 bd7d2199 bd1d7be4 bd50a430 bc6b7a21 bd80f2d5 bd06ec20 bc40b916 3cffd25d bd5c8bee bdc4238d bdd43b80 3cc5c0a6 3ba9c015 3c67605d 3d034397 3bca2ccf 3ba79122 bb50a3eb bc26b4fb bc95530e bd0d0f51 bd3f671e 3d49e355 3d84ea23 bc96cd29 3d99e036 bc64a8c7 3c89fcf2 3de7070f bcbab574 3d6c6ef5 3cef793e 3c40e3e2 3c2d97d6 bd45c657 bb9b9828 3d839e93 3d01f375 bb6a9b74 3becc5a1 bc07ed16 3c9205d6 3cdabc42 3d5f70d8 bdea1abb bc292870 bd63a048 bdb56624 bd2fbf6f bd214830 3cb3791d 3c58787b 3d8137d5 bd57ad7c bc7ebd00 3d9c1f1d bd0e8deb 3d2ee09d bd23bfa2 bb8520ba 3c0bef49 bc9b81a1 bd332abe 3d3afb6d 3dd6f595 3da9a327 3d923cbd bd3565e6 bd52c0c7 bdd19928 bca8e4e5 bdf13474 3d88a6b0 3e146272 3e465255 3e60a876 3ce1e004 3db03d92 bd3d03a4 bd4f40e8 bd118fd3 bd72fd48 3d99ee18 3df6f090 3e3c9a42 3df70f93 3d5496cb 3d1fb70d bda56f25 bdc03ffb bd6ca77a bd6eb8dc bd5a93d6 bbe699dc 3daeea9f 3d92946d bd42b40e bb95918b bcd5f0e0 bdd70801 3cbd01f3 3cc4b87c bd1f39ae 3c4fcd47 bc2f1815 bc72dff1 bb8da782 bbf186ef 3cd0ae72 3d1b0e50 bd58c433 bd40e38e 3cd988a3 3d2962d6 3d040f81 bda948fa bd49432e bc8c1305 3dd7a0cc 3d55cb7d 3d8a7e5a bc63855e bc7be9b6 3dd5cf2e bc926d49 bc22538b bc80908c bd066018 3d2a9111 bdda3592 bcd53178 bce7621f bc7ad983 3c96bec9 3d413f79 3ddc708b 3d98262f bd268c14 3c3beea0 bdf734d6 bd8e7e9b 3d9f1436 3d67f175 bc0ca27f bc6bfab4 3dbf1a0a bd30e191 bd290cad bdb21635 bd963c39 bdc31662 3d89113c bc97b02e 3cc8e510 3ce971fa 3d52bdcb 3cef2374 bde7e186 bd064afa bd0440a0 3b5d5f4c bd559a2a 3cebf577 3d1d23e9 bd063093 bdaeb497 bc2e1c55 bcc9e2d1 bd3640ed 3dce51f1 bd41e9d1 bd2268cf 3bbb38b3 bceeb413 bd011633 3d0dec3d bc5460de bc9e7b2a 3c77cf84 3d1fd146 bd885610 3bbbbc65 bd4bd30f bbaede87 3d697cea 3dce166e 3d18c883 bba1def5 3dc36696 bc02706b 3c3c2a4d 3cae1557 bd5fa9df 3c37c2ff 3e070fb0 bcfc8e05 bc0869f3 bd0de1ad bda2c043 bce98d5e bd101867 3d25fbfc bb1a03e5 3d215845 bc9f3e76 bb6905d5 3c94d76a bd53d551 3d70ba15 3dc745ff 3c4ed38e bbc6c58a b9317a40 3cc4829b bd81c87d 3d2a7580 bd840d7f 3d1428ed 3dd44f6b 3db876a9 3df7c2e2 3b8fca3f bced46ba 3d2e768d 3d3c63c8 3cf6c524 3da4f767 3e067136 3d52a251 3e1e46f6 3db479c9 3d977289 3c3aab7a 3ce5ae2f 3d5a3b12 3d960c36 3d84db26 3e237370 3e1d7c47 3d903764 3d9996ac bd53dfb0 bd5b7fcf 3d3ec3eb 3d23ffbc 3db6c129 3de97428 3da08e05 3d2ab49b 3b916ba6 bd51c6cb bcc755a1 bce2dd99 3d54a73e 3cd5fb64 3c4be13c 3d28fcab 3d426956 3ce06dfc b9c503b1 bd24cfb1 bd877dfa 3cdde1d7 3d36c2e2 3d70691b 3c9d6dbd bdc34315 bda553db bd3fc48f bd272f13 3cd98a27 3cd85f52 3d1e8e46 3c5b9e14 3d2f7716 bcc8e248 3ccd4ffd bd3a4982 bcfbd9ff bcb919a0 bd60576f bb877e5c 3ce14585 3d636254 3d87dc80 bcedfcba 3d25d45b bc5cde8d 3bcaad5f bd204313 3d5aa878 3d6256cd bce998bd bb811fd1 bc28367a bb20d028 bbd3fd7f 3d219f7b bd3208b0 bb2c7f67 3bf9e2d5 bbfb827e bcd1511a 3b71111a bc78bbec bce50493 bd353a0a bd94ac86 3c8ea45b 39b58317 3c15f7c2 3b992afe 3d3f3eab bd098411 bd701436 3d31aa85 3bdfc3f2 3d257a77 3d0a8298 bc53189a 3d0fdda8 3d0de123 3b70068b 3d3f6cf6 bd417264 bc066453 bca55322 bd31033b 3cb037d7 bc681bb2 bd4474fb bd404662 3d9788ec 3d375878 3c5236c1 3d7f4987 bd7719d4 bd2e7145 bb942614 bd340f23 bd0b7bcb 3d3e38b6 bbcc259f 3d826f79 bc104e69 bd183d24 bc2fb7da bd7e2ea3 bb8ef3a2 3d1ac754 bd10e894 3af3e3d4 3dbc144d bc99baef 3d8fdff0 bcc745ba bd0f6abe 3be9f032 bc8f52bb 3cffb96e bc2023d0 3d3abf38 bd9b193e 3d4e7b49 bcf089a9 bcf0cab5 3d317d9e 3d418eba bcd93f10 3ceb49da bd7bb350 bd1b974a bd202020 3d531d1d bd5f2a0c 3d1f3f63 bce254cd 3cb4f29a bcbabe3c bc4b73b1 bc593bc5 3c9aef2b 3d99659a 3d7ff554 3d167dd2 bba917dd 3d0f08c2 bc5e2ded bd3376fc 3d8db0d3 3c948381 bc72172e 3cda06be bccb7cb5 3a4c2552 3d77aca6 3c2053d4 bd314931 bd1aeb10 3d517ba2 bd0b56cd bd671968 bd6ee96d bc2fcaf9 bd12b7e0 3c8f8833 bd2e26d6 3cded57c 3c500e30 bd86ab5d bd296be8 3d6108e0 3d6890c1 bbd7e7e4 bd4a2e56 3c169dc9 3c45e331 bb2c1df0 3d67d6c3 bd8ab7ea bc970505 3cdf303e 3ca54aab 3d50cb0e bd3beeec 3d199803 bcf212c9 ba0ab645 3d15ff11 3c2a5f06 bd62f74a 3c245142 bd2ec270 bb21e618 3c12aea1 3d0fe49a 3c3c7b4e bd4ef123 3c8424fc bcdac00e 3ed63ee9 bd602aea bb812b78 bd854b1e bdf4a4e9 bdd9fd15 3ce0ece4 3c910c55 bcd9b848 3ccf79cd beaeb875 be54287a be083a44 bdc4841d 3d5ae680 3e382fd2 3d9aa650 bd0a70dd 3d46318d be589cbc be2ece93 bdf9a76f bbf9878f 3d598adf 3d32820f 3a8c51e6 bc3b9d94 bd2d7e3b be06c503 bdd2759b bb96531c 3e3fc180 3d8f26fb 3d04022d bdab70b8 bd30c444 bd4ca04c 3dd4dd97 3daa761b 3e5cb6f7 3e883edd 3e57d3f5 3c98b4de 3c01d285 3c6d135c bd514453 3ca574db bb4a58ca 3e320733 3dea7add bd065f49 bd94db43 be1d7afc bc82cada 3d26242e 3cf5533c 3c326935 3df772c2 3d90828c bd947a86 bdb94708 bcc941c7 3bca72f7 3c8891f5 3c902223 3d7bcc09 3cd4fba7 bd94d5bf be05b4f4 bdcdee09 3ba83551 3d05747b bc9895d6 bd1aa518 3daae9f2 bcc96e04 be301a07 bc7185aa 3d9cd34c 3d869334 3d836c63 3eb8967c 3d0434ab 3da126e6 bcd93888 be0d6a25 bd049dad 3d072c91 bc677431 bd333b04 bcf96f92 be6dbaf8 be087d1a bdebbb5a bde65d4d 3c201f68 3d432142 3da86510 bd228c6f 3cda7430 be19e2e8 bb695ca9 bdceefb7 bc492c3d 3dcb2a84 3d4c190e 3d83ddc0 3d8ba5ea bd853374 39ceb4c2 bd8ae458 3c07f586 3dab5f98 3e01a14b 3ca8aa20 bbead551 bb48b3c9 be38746e 3c5a6315 3db065ee 3e15fdc9 3e1ebe98 bd08e545 bd81d2c8 bd85d68c bd830ad4 bc0420de 3d92fedc 3de09668 3e11a62a 3d279f6b bdd47d5b bd7966cc bc26d58b bd012844 bd9accd6 bc525404 3db4d3c2 3d5512c4 bd97449f bdc6e44e bd5a3868 bd2ca893 3dd3795e bcc7a589 3d160832 3e02790e 3dcbe2eb be319d18 bd4cc8da bcd6a5b5 3ce80195 3d721b8d bd4c8818 bd2d06e6 3dc01c4a 3d1d4220 be479ca4 3cb7e1d3 3da84a19 3d1e8108 bc6aa660 3e8270d3 3d9fe8c5 bd31e8e2 bddb76b3 bd3b0072 3cc9fe05 bd8289bc bcb5fc88 bd7c76c1 bb4a84c3 bd4b34c0 be3b2d7b bde2e030 3c1ca699 3d2e54cf 3d99c46d bd8ac5d8 3d04d36b 3d5c7785 bd266f52 bdec368e bd30b920 3d4f9688 3d1668c6 3d9563ab 3dafdd63 3d832388 bd913436 3d06f9d2 bd751df1 bd69bcdd 3da0f170 3c4a82a2 bd7816c1 3d130a31 bdac51c6 bd9b8d47 3d1e1f8b 3d82a51a 3d87c6f2 3e0be927 3d88957d bd756f61 bc97b605 3d09c90f bdb0673c 3e022aac 3b8b7e2f 3d1b6676 3da3487f bd9c562c bdb380bd bdbbda45 3cd5f802 bd47e4e9 bc1b4407 3d86c0ab 3d81dc36 bb4c5da3 384be9fd bdb767dd 3d05174f bbada6e7 bd0a3c52 3d6f2dea 3c3efffc 3d0f0c72 bdaf2086 bcaaf1be bc42d044 3d6582f6 3d0e3f38 bd67d4c7 bd208e84 3d75e5cc 3cfbc915 bdd4180e 3bb55a4a 3da51ed6 3c973f01 bd1b38cc be327406 3dc0a90a 3b3e5f89 3d97ff9b bc282134 3cea6a7e bd055a08 3d5e1ae0 be0bb202 bdb68964 3d156460 3e046fe3 3d169a7d bc54ec40 3b419113 bc4f00af 3d4e838a bd4dc509 bc5d23e9 3df8cebf 3bb7a1d0 bd83dfac bdf7ac8f bdbc95a1 bc6368d2 3ce3552b 3d8ccd97 3d270e29 3df6412c 3da2be1b bcb3746c bd905401 bd9d1be9 3dab2aa2 3e24cf15 3de67c6c bd0dbc24 bd71d537 bdab6a8c bdf80211 be66af37 be3aa959 bdb69a12 bbbd8774 3c80c1ef 3dc54944 bd9a8d14 bcb43a01 bd464960 bdca7b37 be016a60 bd7b5064 3d513be8 bcea011e 3d37b485 bde42cfe bdd341d1 bd168dc7 3c553173 bd0cec2d 3c79d464 bda80464 bd975894 bd5aa346 be342563 bbe9c070 3d8d18c8 3e3c1b92 3d7ed1d0 bdb9059a bd282923 3ca7cce6 3de2129b 3d8f4b68 3d66a2cc 3e8a024e 3ea2f7c9 3e9cf9d1 3cd67f72 baf46cd6 3d3c5baa be0289e2 3d020c95 3d2acc5a 3d122730 3dd239e5 bc2e46c6 3da60ca5 3d5c8de1 be2517f9 bd918217 3dbd45d1 bb33ce49 3db3ea68 bd99ea45 bd70befe 3b8329d4 3dc8278d 3ce097ff 3d5af517 3e0982bb bd484526 bda8782f bdd13f6c bde0538d bcc4871a bb2ee1f2 3cc4faff 3d39e10c 3d86589e 3ca4fe6e be2603c6 be1e1f45 bd7a3c89 bc1dac5b 3d80f63a 3d7de5f8 3d42853f bc8c8c5c bccd78e4 be2069a8 be5a3f73 be470734 bc96988e bc9ab83c 3b30a15f 3c83040e bc189cb3 3a4aecd4 bd03524e bdcdb6d7 bd34755c 3b30ac05 3bc988aa 3d2619be 3d4e0d04 bd10f4a4 bd8328a2 3bdc6110 3d279424 3d9b188f bd6eed8c bce663aa 3cd19835 bc2bcf8a be224355 bdc052c1 3db12399 3e55b02a 3dba470b 3c711e68 bde8028c bd901585 3d431cce bd789c5a b9f5c26e 3e604bdb 3ea9998e 3e70d2d6 3db130e4 bd76c9f4 3d8f80a1 be33a3c9 3d8f3e85 3b69e7a4 3d1849d4 3bf944d9 3dd5e4ff 3d2075f0 bcbecd9f be0099e9 bded0782 3d555731 3cad1217 3cf2ffe2 bcdc287d 3c0f767d 3d5780ea 3d8d3c4a bda7e0c2 3da4dae9 3d691964 3d29e84b bcc514b1 be212386 bdb015d1 3dbfbf4b 3cd4c211 3d74e22f 3cc79d5b 3e03f54a 3dc08e30 bde0fd8c be07635d 3bb60282 3dbd9167 3d90872b 3ddcb8f3 3d356158 bd4b64c5 3cbddaa0 bdba14a2 be6d68b5 be206ecf 3aa32d82 bd39ab92 bae826e5 3d7b8503 3b149b84 3ca3c787 bc6dba20 bdb5d31f bda150fb bd9f45bf bd279d34 3b5ba862 3d05fdfd bd85558a bc961589 3c9c9f79 3d9cf32b 3d188f3b bda255cb bd0f3ad6 bd0c6ded bd5d044d be1c9d4b bdc15298 3deeb1d0 3e041a84 3db14a87 bd28862f be0ad26e 3c216719 3dec2865 bdfaa605 3c6706e2 3dd95772 3e971b08 3e701b2a 3ce13563 bda81995 3d519a06 bcc45add 3daa1496 bdbd5e01 3cb7b37b 3c930d2a 3c779217 3cfd2949 3c8d06a6 3c8d8378 bc27a4a2 3d769074 bd259d41 3d09ea75 3d5404d7 ba146ab8 3d5b5a62 3c808a5c bd495f3c 3dacd47b 3cf3ef0d bbd27fb7 bc3f1717 bd63a109 bc89fb5b bc90b75d ba59ff97 bda2929f 3c9b5778 bd908215 3d2f3b62 3d4af450 bda0c9ec bdb8a922 3cd7b802 39c15744 3c6adc21 3baa0517 be110a50 3d379bf6 3d9ed274 3ca8572b bd455317 3d985b39 3d8e5fd4 3e21f4b4 be0a333a bea406f3 3db985ea 3ddda699 bd7ed058 bd985f27 bdb6464a bdad2e75 be0770a2 3bde1fc3 bde81ee8 3e349c71 3da73bc1 3cfbed04 3d42a97e 3cf7dbec bda25fc5 bc9a182f 3e38c0d0 3dbab48a 3e6cb8f6 3e33d5aa 3e0dd581 3dc3acc8 3dc8a7d7 3a94aaad bd2bd1bc 3f0ab5f5 c001d30f 3e768383 be9d2286 bed2f10f be9c6c47 bd8d7eb7 bb0e75b9 3cdd0dfc bda76863 3e0ce1e0 bdb4a654 bc2341e0 bafa3eac bd01ba6d 3cb3c46e 3d71ebe9 bd9aa215 bc8777b8 3de11688 3d3916ef bd1e77cc 3d0e2580 3d2c3ab3 bc7a5a05 3c9cb2e7 3b706e35 bcc86349 bc5c60c6 3cdab32d 3d639536 bca5b5a0 bd41ff09 bceb7a91 bc44b6b8 bc39adb7 3b9cbde3 bd4e10a3 3daef05c 3d4a171b bd2ed2a5 3d41ba7b bc351439 3d377c70 3d07570a 3ccde057 bd179172 3d5ef8f6 3d35be38 bd822f5e 3b131159 bc193f21 3c92d39e 3da33a1d be514668 be930e7d 3dbdb889 3d37e392 bd213301 bd5c137b bc7f06e7 bd253247 bd93dda6 3d9d0ea2 bd95fe89 3de4f6a0 3dc0a73e 3cc16d9c 3c300518 3c83d989 be029b58 3a15b6d4 3df10fd7 3ded23c9 3e5bb640 3defbed2 3e034107 3da2e2ee 3dc02783 bc5f1691 3d1674f9 3e51beba bf3c98a7 3e74975c be766880 bea21e27 be22f7f8 3d7be403 3d9cdba9 3c85ea36 bd199080 3e0b7f0a bc8fb9d4 bcde5316 3bfbc483 3d43412b 3cbe9ee2 3cb13d67 bd457822 bd03c618 bb823b09 3d9a11e9 3b80becc 3ce78d81 3bff70c6 3b9d057b bc186254 3cdfa71a 3d1b6050 bd098455 bd2f4672 3d6dc0f9 bcb6d404 bd325a0d bcc3ed44 3c6405f2 bda6e62f bbbb6057 bd8fa986 3ca4bebb 3cd07bb1 bce89116 bda319ad 3d6239b1 3dc8d446 bbc51db4 3d5f245f bdb443e3 3d8a24ce 3d82d258 bd45258e bd86b2f9 3c3468cd bc8d95b8 3ddb6bae be389b72 beb9f9d3 bd4db013 3d9c2fab 3d2a0fda be0dc9a1 bd5027dc bd468b3d 3d3a2433 3e330d46 3d49d3d2 3cb80cfa 3e249716 3dda591d bd130346 bd9c0f55 bd5ce768 bcd6babf 3e508c81 3e337a52 bc7ad7d1 3d500e25 3dafc4fe 3caf42e5 bc893ed2 bc2de05a bc1ae474 3ee0a258 befea9c5 bd8c187b be2f12ed be5f14df 3d141e1f 3d905f55 3d8a93b2 3d88f081 bd01fd51 bca57b0b bcea7833 3c24f418 bd0ad5b5 3cef090c bd1d145e bc7c2e50 3d016432 bca1b8e9 bd7933e3 3d78fc3a 3dd90c4c 3cebabc2 bd034693 bcd8e0cd 3d077388 bdbbf3eb bce1e012 bc87f4b2 bba57f62 3c6fa020 3cef59e3 bd2b32b2 bd0fbfa1 bc2f7f74 bd144587 3cea0c65 bcce7c20 bd12165e bd3f918d 3d1e1a0d 3d805dea 3cd589a9 3c99c831 bc3aaf87 3d541b79 3d2ad4f7 3da62a9c bd0db12f 3da9112f 3c601c96 3d448970 3dc6e902 bd8a619e bd88ac19 3d28cc0a bce1df49 bcd4cb3b 3d972922 3c40ee1a 3d6bf4f4 3c068e90 bd1e2bb9 bc9ce194 bd3b85a7 bd4c3f59 bbf4341f 3d6b388b 3e15e5db 3d990449 3c65cc3f bc6f6fa2 bd387dcb 38a4dff9 3ca8db05 bb852689 3d0429c8 3c85f256 3a1829e1 bd003494 bdd73549 3d0530d5 3d95ecb2 bc3b73af bd88e47b bd5af3b6 bd2f15ec bd643071 3c76e91a bb3f265f bb22603e be0549db 3dc993c1 3e260834 bc4c43e9 3dc20496 3d1e88a9 bce2f372 3db812ee 3d50beb5 bd9e3795 3da85a1b 3dc05845 bd525963 3d5c727e 3cc650aa bc615292 bd47a49b 3d140860 3ca31f29 3c6e7b09 bd8d1475 bd917c63 bcbac3f7 3caf14a6 3d59cdcf 3c55fa91 3e24d022 3da2043e bca45bed bd758036 be178f6c bdc376ce bd5766ce 3c3123e3 3da91899 3d8fca94 bafbefe7 bda53fd8 be4b885a bec39f75 be4232ac bdab798a bd17deae 3d26544d 3c317e08 3de153c1 bd2c89b8 bdaef92d be6aff3a bd8686b4 3bcae604 3d3f58cb 3e24b079 3cffe7a8 bd35a40a 3d481c22 bddd97c1 bd9176f4 3d22a576 3dc068bb bd2a868e 3d8d089d 3b9ccf78 bcd9e745 3b4460b2 3ad5ff66 3be9d5e4 3dd1547b bbcc51ad bbc50494 bd9b1da8 3caea65b bd161fe7 3df3371e 3df64af6 3cb2b836 3cde4c8c 3d06b93e 3d28c192 bd35de35 3cdc3253 bdaa8684 bd37ea5a 3cccc13d bc954e0b bc7263fc 3c9e4798 bd2677d5 3dfa6d58 bca48d35 bdd2f495 bc914445 3de4309d 3c5068f8 3d881776 3c80dea6 bd95b478 bd801a49 3b8f0d7b bd270ca5 3d000088 3db814e2 3d3aa71e 3d83aebe bd7f5c9e bd26a556 3d036f3d bdb359d7 3d841aef 3dabc2d9 bcda2957 bd7bc0b5 bd85f240 bc94361e bdd46624 3dd4b136 bd8c55e1 3e091dd4 3d2c7225 3ccc6843 be5fe228 bd0d205c 3ccab183 bc2eb7f8 3e1574b8 bd49c2ad 3de31bc6 3d935a1c bda254f8 be284e1d bd5c6f58 bd05c1fc bd70603b 3e04d542 3c86b41e 3d825df4 3c42377a bd52935d bdab641f bc5df0a2 3cb3f513 3c905671 3c6d4446 3cfea7f5 bc9ce6bd 3d2aca51 bd2a0803 bcacf97d 3e29b8a9 bad836db bdb4e0db bcfe459f bd1232a0 bd5fa258 39e7eaff 3d5fe527 3bae3d68 3e1596a4 bd1c7e66 bcc165d8 bde1c322 be39fde3 3b0d1eed bb282a76 bc93fd5c 3da02e4b 3d2aecb0 3d939731 3cab4dc1 3d8655df 3bca17fb 3c3c6d18 3d69876b 3d4ff3bb bd4cf1ab bda42bf1 bd23e65e 3cb7f0bb 3d832b53 3d6410f1 3dab8be9 3cf379b7 3d782e4d bd6b52f1 bdddcf1b bdc558a6 bdd4994b bd50539a 3e00dd80 3da050d2 3dd07cb4 3d8a3aa3 bca6257d be265c2c bccab52c bd9461e6 bcfaaf27 3d3e8181 bd8c115d bd65b369 3cd9da11 3d438ce6 bccc3df2 bccf60cb bd432da8 bd552ac7 bc6e6f58 bdc96388 bcf0deae 3cc141e7 3dca81bd 3cce2c16 3ceda8c1 3e0b17f8 3cea3003 bdf8fade be44ae5e bdea5c1d 3d29e4c3 3d39e145 3dc56c73 3e177ee6 3b2f9f0c 3d904ec3 bdef3815 bd9e2d47 bdd8bbfe bd2dee53 3a92e179 3d52b78f 3c947837 bc4eb8e7 3dd85e27 3e349d2f 3e154dee 3dd5c39c 3c5438eb 3ca446db bdb40198 bde02b25 bd2e9e98 bd318e5b bdff91df bd0ae888 bcf3bc0a bcb7010f 3d353ec5 bd279782 3d84e84f 3d82eda7 3cb541c2 bc52dbe8 bcfb92a8 bcce4b72 3d3bcc74 3c9af022 bd89230a bcad2513 bd5c3aee bd07456d 3e19ed82 3dd8e485 3d5875ab 3d257d6b 3ce00a00 bd4120c3 bc9ab778 bd604053 3d529119 3cc39830 3dc60180 3d808ade 3d09874c 3c9f4401 bd5cd180 be0c2de5 bd79bf7a bd8b9f4f 3d45946c 3cc1fa9c bc5e8a58 3d63a756 3d379f3f 3cd520c3 bc8d912b 3c8a8156 3c9bee41 bd971c96 be2b57f6 bd72624c bd12413e 3d82c65c 3d4d23b0 3d0d5a89 bd51075f 3d61a9ba bdcc10a6 be32e6c4 bd9d4459 bcc23a8f 3e101553 3cd4618d 3e0c0db5 3c6c3707 3d238a37 be034f30 be0dd7a1 bdc19642 be090671 3e030d93 bc23c085 3dc19408 3d6a75bc 3d717d84 3e82591b 3daaaa7c 3c8c2965 bd39d25d 3dc8a30f bd430666 bcd88068 bdc67ab6 bdac636a bde3eef7 bce0c341 3b593546 3d9c2284 bce880bc bd0db6ec 3d93cb39 3da4a5cf 3d4e1a50 bd1e7411 3c96fa66 3dafe7a9 3d581708 bd93e476 bdca9442 3cfd1037 3c41b722 3ba4e642 3db644a6 3cb6174f 3d84779d 3d8ab77b bdb148d9 bdc24130 bdd7259e bdaebda4 3c46c37d 3d665f26 3d6ff337 3e24f328 bbd33fca bd167215 bdfaae37 bde3ba5d bdfb8567 3ccf3bd0 bd076f22 bda43380 3cfce750 3cdec3dc 3da45768 3c12c6c8 3d154776 bdc870b2 3d1642d0 bd3aa882 bdd5ddba 3c1892f0 3cb73cae 3d402a86 3cd4b31b 3d0f95e5 3c4187e4 3d98fc34 bd915e40 bdfd04ad bda7c0e2 bb8e0d8b 3d89adb6 3e11e781 3dacfbd1 3d133fa1 3d83473a bb27b903 bddd7f7e bdb21fe6 3d171d21 3cb15d85 3d1517d6 3de1dc15 3c1f19e7 3e37d2f5 3e398eae 3d4de143 3c3b54c1 bd4c6cc4 bc943b7d bd6415be bd7bfad7 be4043d2 be013d1a bdb0d7ce bdac5e08 bdcf11dd be170c54 3b0147d6 bc9d693b bdc8ab62 be01dc35 be06f427 bded47de bd06df4b bdd43f79 bce074be 3d26ee73 3d206347 bd0c9692 3da94d4b be1cfa83 bddaf378 bd4eb495 bd8f3707 be029ccc 3da3e165 3cedd799 be0ff09d bd65db74 be5b314d bd28aac3 bd3b1dc9 3d30e396 3d62438f 3e32264b 3df7ff19 3ce0513c bd899655 be1ea782 bc0ffe7f 3da129fc 3ddad5d6 3e0739a7 3e9b2cb4 3e4003ef 3d6040bf 3d732f3b 3cd8ea8a be3b0963 bd5f85ec 3da494c7 3d8e6e52 3e53efc6 3e1fd5ae bb0d32fc bbc473f9 bc612a98 bdf8492a bd18aa57 3c4e8671 3ddb084c 3e6dd8de 3d24c894 3d1834d5 3cfebd42 3d8d355a bdf9d105 3db72484 3de01a68 3d5247f7 3d999ee5 bc2197cd bcf9bd16 bc89f7a8 bd5c8a75 be02495f bd039be8 bba52a6d bdd20bc8 bd991f87 bdd09214 be4d4e1d bdae8fb5 bda0199b 3d1d93a0 3d0aac23 bc829cb0 3bb59c5a 3dcf5963 3d769cc4 bceb6f0c 3d03bf24 3cac64b5 3db85cae 3c7ec9db bc1d7218 3cc7d107 3da0c1e8 3e0353ca 3d8fa08b 3dbd031b 3d2ba8e8 3e154258 3dae679b bd8304b3 bd868460 bd4495e8 bd914d11 3d45de11 3d786a2c 3d6e8e1b 3d6e4975 3c3dcb3e 3cf48077 3bad5108 bdbb9731 bafc81a7 bb8d9b2c 3d93bbbb 398495c6 3d7cb1b0 3d7d4aa7 bcb5adc1 3b992332 bda6aab8 ba76a3f2 bd7f27c4 3c4c712f 3d657797 bbe8fb41 3c1d0b5d bda02c53 bd2e56dc bd882e07 bd551ba5 bde6d003 bbe06157 3c51dd8b bd3d876f 3d0d77ea bd692d15 bd6477b0 bd72d9eb bd9e3d78 bd4c1707 3d1bad5b 3d91538c bd8ef7ed 3d628972 bc434a33 ba675095 bd08ea1e bcff7108 bd23e7e8 3db58e23 3d2d0bfb 3cff58c8 3d9134ee 3daae4b6 3c8f552b bca327e6 bd55561d bcc784f0 3d2efe5a bd50d70d 3daa5741 bbc323dd bd164b87 bbcc1d8b 3e095515 3cb5bc12 3d51e067 3d3549c4 3daccbcc 3e0a1ac6 3d8f0a45 3da8de48 3c53ef34 3d348c82 3b2ad693 3cd93964 3d4dde26 3d7404bf 3d159917 bd7ac84c bd8d132d bdfe5e9f bcf88a25 bda729e1 bda5bba0 bd2d7cd2 bb9ccdd4 3c03c3cc 3bc604f6 bd211fb1 bd4e32ab bca72ec9 bca0192c bd2ec39d bcec97a5 3d9d5701 3e018542 3d139462 bdc372a4 bdb3294e 3cc0eb6b bd6e2ee1 bd30945e bc596f29 bb0ab298 3c4470bc bd519b56 bc9a0a7b bdfacc06 bde6041e be208d0e be2651ed bc19a3bc 3b834cc7 bb12977e 3cefafd1 bd10ca8d bdb8aa79 bd04a3a5 be25b6e8 bdad9b18 3da7a7c5 3d85ca35 bcbf62be 3cb0d51a 3ddcc054 bd0f4dd0 bc5ba0bc bd845cb5 3d32fbc8 3da3ca35 3dc7e94d 3da55fc4 3e23916f 3d6ab0e5 3cd97756 3db7c32b 3d6f8999 3c7bfcb1 3d8ba1f2 3d71deba 3c453a09 bbdfb0f4 bd0a5a1f bdb9c9f7 3d6ac8c8 bd32e9c2 3d32f3be ba5902a7 3cc394a3 bbda9e98 3b519b9b bd4f2cda 3cfc7bf0 bd18c84a bd80c692 bda9dbb1 3d09f5dc 3c051c77 3d104ea6 ba77230f 3dec5baf 3e03aa98 3d2f47bb bdadeea5 bd91593b 3ba5f6b9 3daf84c3 3d38b1d4 bc1e4608 3d0ffae4 3dbac7c4 3df0efa4 bc9a15ac bc11c90c bcbc12b5 3df56899 bde61739 bd21ad77 3be18f15 bd28b5c6 3dea72ca bc02a6c5 bdc80c07 bdd84389 bd862fe8 bb49ce83 3c37d38b bdcf94a6 bc88f097 3d04f19c 3ce9eb64 3dc95682 bcb3554d bdd2dd66 3d700c92 3b3b7541 bcb20c3d bdbb5954 bcd33466 bc98244e 3e2341a8 3e00d878 bc7f18c6 bcbb3200 3cad73b4 bcf956b3 bddb8bc4 bd7e44d4 bd7e7f4e 3d5520d6 bbba0e61 bdc69023 bc606b9b 3d3545b6 3d6aab71 bcdc9454 3bdcb045 bd7ff44e 3cd20da4 bc4fde79 3d8cb2bd 3d0d8974 3dc74478 bd20a456 bd655542 bc8130ec 3d3ae49e 3d3df725 3dad7e06 3e47b1c1 bd34e678 3d352f17 3d1c9a27 bd445962 bdb4b461 be428bad bdf3a259 3d896db6 3e2666c8 bd902afb 3b0cda1d 3e04ac14 3d8d76d8 bd283144 be36ae21 bea7ba84 bde44949 3d9759b9 bd30dcd3 3c832413 3cc5bb55 3c89d082 bc87c225 be730f2b be637b7c be2ee1ad be00c3fd bd10efce 3d446e29 3dd7f8d1 3e3a0a5c 3eae2878 3e5e8787 3d859a78 3d1a2db2 bd9a1b45 3c55f84b bdfb24e3 bcccc090 bda425bf 3e4df102 3e02a36f 3d497507 3d0af886 bdbf7c0a 3d8d4418 bd95f713 bdc75190 bda45e6e 3d4c9627 3dcf3afb 3e1c3450 3de0b710 bbd98d7e 3c9c2f1b bd4dc4d0 bd919949 bca3cccd bcf0fbe1 3d84f0fc 3db12819 bcbdb9bb bdf2292b 3d6209bc 3d144a2d bcaf2e12 bc451047 bd8c8435 bd8408ba 3b676c53 3bbf1616 3c8b3452 3b5062de bd1f3e8b bde27b1d bd1d536a 3bbe34d8 bdb153a9 3e01184b 3d6801db 3e8c0c64 bd68a1c5 3da9bc42 